{
  "version": "1.0",
  "truncation": null,
  "padding": null,
  "added_tokens": [],
  "normalizer": {
    "type": "Lowercase"
  },
  "pre_tokenizer": {
    "type": "ByteLevel",
    "add_prefix_space": false,
    "trim_offsets": true,
    "use_regex": true
  },
  "post_processor": {
    "type": "ByteLevel",
    "add_prefix_space": true,
    "trim_offsets": false,
    "use_regex": true
  },
  "decoder": {
    "type": "ByteLevel",
    "add_prefix_space": true,
    "trim_offsets": true,
    "use_regex": true
  },
  "model": {
    "type": "BPE",
    "dropout": null,
    "unk_token": null,
    "continuing_subword_prefix": null,
    "end_of_word_suffix": null,
    "fuse_unk": false,
    "vocab": {
      "!": 0,
      "\"": 1,
      "#": 2,
      "$": 3,
      "%": 4,
      "&": 5,
      "'": 6,
      "(": 7,
      ")": 8,
      "*": 9,
      "+": 10,
      ",": 11,
      "-": 12,
      ".": 13,
      "/": 14,
      "0": 15,
      "1": 16,
      "2": 17,
      "3": 18,
      "4": 19,
      "5": 20,
      "6": 21,
      "7": 22,
      "8": 23,
      "9": 24,
      ":": 25,
      ";": 26,
      "<": 27,
      "=": 28,
      ">": 29,
      "?": 30,
      "@": 31,
      "A": 32,
      "B": 33,
      "C": 34,
      "D": 35,
      "E": 36,
      "F": 37,
      "G": 38,
      "H": 39,
      "I": 40,
      "J": 41,
      "K": 42,
      "L": 43,
      "M": 44,
      "N": 45,
      "O": 46,
      "P": 47,
      "Q": 48,
      "R": 49,
      "S": 50,
      "T": 51,
      "U": 52,
      "V": 53,
      "W": 54,
      "X": 55,
      "Y": 56,
      "Z": 57,
      "[": 58,
      "\\": 59,
      "]": 60,
      "^": 61,
      "_": 62,
      "`": 63,
      "a": 64,
      "b": 65,
      "c": 66,
      "d": 67,
      "e": 68,
      "f": 69,
      "g": 70,
      "h": 71,
      "i": 72,
      "j": 73,
      "k": 74,
      "l": 75,
      "m": 76,
      "n": 77,
      "o": 78,
      "p": 79,
      "q": 80,
      "r": 81,
      "s": 82,
      "t": 83,
      "u": 84,
      "v": 85,
      "w": 86,
      "x": 87,
      "y": 88,
      "z": 89,
      "{": 90,
      "|": 91,
      "}": 92,
      "~": 93,
      "¡": 94,
      "¢": 95,
      "£": 96,
      "¤": 97,
      "¥": 98,
      "¦": 99,
      "§": 100,
      "¨": 101,
      "©": 102,
      "ª": 103,
      "«": 104,
      "¬": 105,
      "®": 106,
      "¯": 107,
      "°": 108,
      "±": 109,
      "²": 110,
      "³": 111,
      "´": 112,
      "µ": 113,
      "¶": 114,
      "·": 115,
      "¸": 116,
      "¹": 117,
      "º": 118,
      "»": 119,
      "¼": 120,
      "½": 121,
      "¾": 122,
      "¿": 123,
      "À": 124,
      "Á": 125,
      "Â": 126,
      "Ã": 127,
      "Ä": 128,
      "Å": 129,
      "Æ": 130,
      "Ç": 131,
      "È": 132,
      "É": 133,
      "Ê": 134,
      "Ë": 135,
      "Ì": 136,
      "Í": 137,
      "Î": 138,
      "Ï": 139,
      "Ð": 140,
      "Ñ": 141,
      "Ò": 142,
      "Ó": 143,
      "Ô": 144,
      "Õ": 145,
      "Ö": 146,
      "×": 147,
      "Ø": 148,
      "Ù": 149,
      "Ú": 150,
      "Û": 151,
      "Ü": 152,
      "Ý": 153,
      "Þ": 154,
      "ß": 155,
      "à": 156,
      "á": 157,
      "â": 158,
      "ã": 159,
      "ä": 160,
      "å": 161,
      "æ": 162,
      "ç": 163,
      "è": 164,
      "é": 165,
      "ê": 166,
      "ë": 167,
      "ì": 168,
      "í": 169,
      "î": 170,
      "ï": 171,
      "ð": 172,
      "ñ": 173,
      "ò": 174,
      "ó": 175,
      "ô": 176,
      "õ": 177,
      "ö": 178,
      "÷": 179,
      "ø": 180,
      "ù": 181,
      "ú": 182,
      "û": 183,
      "ü": 184,
      "ý": 185,
      "þ": 186,
      "ÿ": 187,
      "Ā": 188,
      "ā": 189,
      "Ă": 190,
      "ă": 191,
      "Ą": 192,
      "ą": 193,
      "Ć": 194,
      "ć": 195,
      "Ĉ": 196,
      "ĉ": 197,
      "Ċ": 198,
      "ċ": 199,
      "Č": 200,
      "č": 201,
      "Ď": 202,
      "ď": 203,
      "Đ": 204,
      "đ": 205,
      "Ē": 206,
      "ē": 207,
      "Ĕ": 208,
      "ĕ": 209,
      "Ė": 210,
      "ė": 211,
      "Ę": 212,
      "ę": 213,
      "Ě": 214,
      "ě": 215,
      "Ĝ": 216,
      "ĝ": 217,
      "Ğ": 218,
      "ğ": 219,
      "Ġ": 220,
      "ġ": 221,
      "Ģ": 222,
      "ģ": 223,
      "Ĥ": 224,
      "ĥ": 225,
      "Ħ": 226,
      "ħ": 227,
      "Ĩ": 228,
      "ĩ": 229,
      "Ī": 230,
      "ī": 231,
      "Ĭ": 232,
      "ĭ": 233,
      "Į": 234,
      "į": 235,
      "İ": 236,
      "ı": 237,
      "Ĳ": 238,
      "ĳ": 239,
      "Ĵ": 240,
      "ĵ": 241,
      "Ķ": 242,
      "ķ": 243,
      "ĸ": 244,
      "Ĺ": 245,
      "ĺ": 246,
      "Ļ": 247,
      "ļ": 248,
      "Ľ": 249,
      "ľ": 250,
      "Ŀ": 251,
      "ŀ": 252,
      "Ł": 253,
      "ł": 254,
      "Ń": 255,
      "Ġa": 256,
      "Ġt": 257,
      "in": 258,
      "Ġs": 259,
      "er": 260,
      "Ġc": 261,
      "Ġp": 262,
      "on": 263,
      "or": 264,
      "Ġf": 265,
      "es": 266,
      "Ġw": 267,
      "it": 268,
      "nd": 269,
      "Ġb": 270,
      "re": 271,
      "le": 272,
      "at": 273,
      "Ġth": 274,
      "ou": 275,
      "Ġm": 276,
      "Ġd": 277,
      "al": 278,
      "en": 279,
      "is": 280,
      "ing": 281,
      "ar": 282,
      "Ġand": 283,
      "as": 284,
      "ro": 285,
      "an": 286,
      "ed": 287,
      "Ġthe": 288,
      "Ġh": 289,
      "ic": 290,
      "Ġo": 291,
      "Ġco": 292,
      "Ġto": 293,
      "ct": 294,
      "ig": 295,
      "Ġy": 296,
      "Ġin": 297,
      "Ġl": 298,
      "Ġg": 299,
      "Ġfor": 300,
      "Ġyou": 301,
      "ion": 302,
      "Ġe": 303,
      "ac": 304,
      "Ġof": 305,
      "us": 306,
      "el": 307,
      "il": 308,
      "Ġn": 309,
      "et": 310,
      "ab": 311,
      "ith": 312,
      "Ġwith": 313,
      "Ġst": 314,
      "th": 315,
      "ra": 316,
      "Ġpro": 317,
      "ch": 318,
      "ur": 319,
      "id": 320,
      "igh": 321,
      "ver": 322,
      "Ġyour": 323,
      "ol": 324,
      "Ġis": 325,
      "om": 326,
      "br": 327,
      "ir": 328,
      "st": 329,
      "ent": 330,
      "ul": 331,
      "ot": 332,
      "ve": 333,
      "ad": 334,
      "im": 335,
      "ect": 336,
      "</": 337,
      "Ġre": 338,
      "able": 339,
      "Ġ1": 340,
      "ack": 341,
      "ly": 342,
      "qu": 343,
      "if": 344,
      "Ġit": 345,
      "oo": 346,
      "ess": 347,
      "ut": 348,
      "ight": 349,
      "am": 350,
      "ge": 351,
      "Ġsh": 352,
      "Ġr": 353,
      "Ġon": 354,
      "ity": 355,
      "Ġal": 356,
      "Ġcom": 357,
      "ow": 358,
      "Ġk": 359,
      "ec": 360,
      "Ġ<": 361,
      "Ġor": 362,
      "><": 363,
      "ay": 364,
      "ign": 365,
      "ter": 366,
      "Ġbe": 367,
      "um": 368,
      "un": 369,
      "Ġdes": 370,
      "ort": 371,
      "Ġus": 372,
      "ater": 373,
      "and": 374,
      "ip": 375,
      "Ġan": 376,
      "Ġch": 377,
      ".,": 378,
      "ial": 379,
      "rom": 380,
      "Ġdesign": 381,
      "ant": 382,
      "ase": 383,
      "Ġwh": 384,
      "per": 385,
      "Ġthis": 386,
      "iz": 387,
      "Ġ(": 388,
      "ak": 389,
      "Ġwe": 390,
      "one": 391,
      "int": 392,
      "Ġcol": 393,
      "Ġ[": 394,
      "Ġv": 395,
      "ure": 396,
      "Ġfrom": 397,
      "Ġpr": 398,
      "Ġle": 399,
      "Ġ-": 400,
      "Ġqu": 401,
      "ong": 402,
      "Ġcon": 403,
      "our": 404,
      "est": 405,
      "uct": 406,
      "Ġcover": 407,
      "em": 408,
      "Ġare": 409,
      "Ġ2": 410,
      "Ġsp": 411,
      "ation": 412,
      "Ġmo": 413,
      "Ġall": 414,
      "ap": 415,
      "ce": 416,
      "ality": 417,
      "Ġ&": 418,
      "out": 419,
      "ill": 420,
      "Ġpl": 421,
      "all": 422,
      "ers": 423,
      "ard": 424,
      "up": 425,
      "ust": 426,
      "Ġ3": 427,
      "ade": 428,
      "tect": 429,
      "ash": 430,
      "age": 431,
      "00": 432,
      "Ġso": 433,
      "ide": 434,
      "Ġas": 435,
      "Ġcan": 436,
      "Ġprotect": 437,
      "art": 438,
      "ive": 439,
      "Ġex": 440,
      "ist": 441,
      "ize": 442,
      "li": 443,
      "aterial": 444,
      "Ġquality": 445,
      "Ġj": 446,
      "duct": 447,
      "Ġsc": 448,
      "Ġ:": 449,
      "ish": 450,
      "fect": 451,
      "Ġx": 452,
      "ast": 453,
      "ain": 454,
      "Ġper": 455,
      "hone": 456,
      "Ġnot": 457,
      "ft": 458,
      "ton": 459,
      "Ġbl": 460,
      "se": 461,
      "Ġcase": 462,
      "iv": 463,
      "Ġprint": 464,
      "cc": 465,
      "are": 466,
      "str": 467,
      "ag": 468,
      "ook": 469,
      "Ġhigh": 470,
      "ry": 471,
      "ck": 472,
      "Ġproduct": 473,
      "Ġbo": 474,
      "Ġcl": 475,
      "Ġeas": 476,
      "ep": 477,
      "Ġthat": 478,
      "Ġfe": 479,
      "ass": 480,
      "Ġ/": 481,
      "Ġcolor": 482,
      "Ġsu": 483,
      "ine": 484,
      "ice": 485,
      "ile": 486,
      "Ġhe": 487,
      "ens": 488,
      "Ġad": 489,
      "ib": 490,
      "ate": 491,
      "Ġback": 492,
      "Ġne": 493,
      "ell": 494,
      "ace": 495,
      "Ġsize": 496,
      "Ġmaterial": 497,
      "Ġfit": 498,
      "Ġmak": 499,
      "atch": 500,
      "Ġmade": 501,
      "ore": 502,
      "'s": 503,
      "Ġsty": 504,
      "op": 505,
      "Ġpre": 506,
      "Ġcomp": 507,
      "Ġwill": 508,
      "ric": 509,
      "Ġuse": 510,
      "Ġde": 511,
      "cl": 512,
      "ud": 513,
      "ood": 514,
      "fort": 515,
      "sh": 516,
      "Ġphone": 517,
      "we": 518,
      "Ġfl": 519,
      "ach": 520,
      "Ġlook": 521,
      "ult": 522,
      "Ġat": 523,
      "Ġhand": 524,
      "ie": 525,
      "os": 526,
      "Ġlight": 527,
      "ies": 528,
      "Ġperfect": 529,
      "pe": 530,
      "pro": 531,
      "Ġ4": 532,
      "Ġwom": 533,
      "Ġha": 534,
      "Ġany": 535,
      "Ġcont": 536,
      "ue": 537,
      "ath": 538,
      "Ġsl": 539,
      "Ġsm": 540,
      "ock": 541,
      "Ġeasy": 542,
      "old": 543,
      "act": 544,
      "ick": 545,
      "very": 546,
      "Ġcomfort": 547,
      "Ġun": 548,
      "mi": 549,
      "ift": 550,
      "Ġcot": 551,
      "Ġse": 552,
      "ich": 553,
      "ail": 554,
      "Ġcotton": 555,
      "strong": 556,
      "Ġacc": 557,
      "irt": 558,
      "Ġte": 559,
      "ions": 560,
      "Ġro": 561,
      "sp": 562,
      "ual": 563,
      "ree": 564,
      "Ġby": 565,
      "Ġ5": 566,
      "Ġwomen": 567,
      "Ġour": 568,
      "ment": 569,
      "Ġen": 570,
      "Ġwear": 571,
      "Ġcar": 572,
      "Ġout": 573,
      "fer": 574,
      "og": 575,
      "atur": 576,
      "ome": 577,
      "Ġgl": 578,
      "abric": 579,
      "Ġup": 580,
      "pl": 581,
      "Ġsoft": 582,
      "so": 583,
      "Ġar": 584,
      "Ġbr": 585,
      "Ġke": 586,
      "ps": 587,
      "ire": 588,
      "ng": 589,
      "Ġgift": 590,
      "Ġset": 591,
      "Ġwor": 592,
      "Ġim": 593,
      "Ġfr": 594,
      "Ġcle": 595,
      "Ġinch": 596,
      "Ġdur": 597,
      "Ġprov": 598,
      "ance": 599,
      ".</": 600,
      "ite": 601,
      "Ġap": 602,
      "ax": 603,
      "Ġwater": 604,
      "Ġtr": 605,
      "nt": 606,
      "Ġres": 607,
      "ind": 608,
      "ik": 609,
      "reen": 610,
      "Ġpa": 611,
      "Ġdr": 612,
      "âĢ": 613,
      "Ġno": 614,
      "Ġsk": 615,
      "Ġwash": 616,
      "Ġwhich": 617,
      "ther": 618,
      "--": 619,
      "Ġprotection": 620,
      "av": 621,
      "Ġprinted": 622,
      "te": 623,
      "Ġdo": 624,
      "ngth": 625,
      "ound": 626,
      "Ġbut": 627,
      "fe": 628,
      "Ġcas": 629,
      "cm": 630,
      "reat": 631,
      "Ġpack": 632,
      "ings": 633,
      "Ġfabric": 634,
      ".]": 635,
      "Ġ6": 636,
      "mo": 637,
      "Ġ,": 638,
      "ese": 639,
      "ime": 640,
      "ely": 641,
      "Ġty": 642,
      "ous": 643,
      "ub": 644,
      "der": 645,
      "atter": 646,
      "Ġlong": 647,
      "astic": 648,
      "Ġind": 649,
      "clud": 650,
      "ible": 651,
      "Ġpol": 652,
      "Ġsle": 653,
      "Ġsa": 654,
      "ides": 655,
      "Ġoff": 656,
      "Ġab": 657,
      "of": 658,
      "Ġsil": 659,
      "ia": 660,
      "Ġpart": 661,
      "ower": 662,
      "ratch": 663,
      "Ġmob": 664,
      "eck": 665,
      "Ġhas": 666,
      "Ġaccess": 667,
      "Ġchar": 668,
      "ple": 669,
      "ven": 670,
      "lect": 671,
      "Ġmake": 672,
      "Ġclean": 673,
      "ull": 674,
      "Ġinclud": 675,
      "Ġ100": 676,
      "gh": 677,
      "aut": 678,
      "Ġstyle": 679,
      "Ġtype": 680,
      "mium": 681,
      "Ġkeep": 682,
      "Ġbest": 683,
      "Ġmobile": 684,
      "for": 685,
      "Ġcut": 686,
      "ather": 687,
      "ition": 688,
      "></": 689,
      "port": 690,
      "me": 691,
      "Ġman": 692,
      "Ġdev": 693,
      "Ġalso": 694,
      "Ġthese": 695,
      "Ġscratch": 696,
      "Ġlo": 697,
      "rad": 698,
      "dy": 699,
      "Ġmore": 700,
      "Ġone": 701,
      "Ġbra": 702,
      "Ġstyl": 703,
      "ated": 704,
      ".<": 705,
      "Ġdesigned": 706,
      "Ġhave": 707,
      "ility": 708,
      "Ġfin": 709,
      "pr": 710,
      "ti": 711,
      "Ġhome": 712,
      "the": 713,
      "Ġ|": 714,
      "ush": 715,
      "Ġdec": 716,
      "Ġop": 717,
      "Ġscreen": 718,
      "Ġskin": 719,
      "ical": 720,
      "ough": 721,
      "Ġslee": 722,
      "ere": 723,
      "iend": 724,
      "itch": 725,
      "ug": 726,
      "ary": 727,
      "ents": 728,
      "tra": 729,
      "ble": 730,
      "irl": 731,
      "pack": 732,
      "Ġu": 733,
      "Ġother": 734,
      "Ġdurable": 735,
      "less": 736,
      "Ġglass": 737,
      "Ġbeaut": 738,
      "Ġused": 739,
      "Ġ/>": 740,
      "com": 741,
      "to": 742,
      "iec": 743,
      "Ġcomfortable": 744,
      "ph": 745,
      "eel": 746,
      "Ġblack": 747,
      "ld": 748,
      "ike": 749,
      "Ġ</": 750,
      "Ġspec": 751,
      "iqu": 752,
      "Ġday": 753,
      "Ġadd": 754,
      "ang": 755,
      "Ġmen": 756,
      "Ġlength": 757,
      "ear": 758,
      "Ġwork": 759,
      "ful": 760,
      "Ġhard": 761,
      "Ġdif": 762,
      "Ġred": 763,
      "let": 764,
      "orts": 765,
      ":</": 766,
      "ouse": 767,
      "Ġpremium": 768,
      "Ġnew": 769,
      "Ġweight": 770,
      "Ġdry": 771,
      "Ġits": 772,
      "),": 773,
      "Ġgr": 774,
      "Ġra": 775,
      "ily": 776,
      "ence": 777,
      "ink": 778,
      "Ġdis": 779,
      "Ġpoly": 780,
      "eas": 781,
      "Ġ9": 782,
      "Ġgirl": 783,
      "nb": 784,
      "atures": 785,
      "ouch": 786,
      "Ġ7": 787,
      "les": 788,
      "Ġfun": 789,
      "Ġstylish": 790,
      "Ġonly": 791,
      "ange": 792,
      "nbsp": 793,
      "ashion": 794,
      "Ġbu": 795,
      "Ġ8": 796,
      "Ġstr": 797,
      "ets": 798,
      "Ġdress": 799,
      "ise": 800,
      "Ġbutton": 801,
      "Ġevery": 802,
      "Ġfinish": 803,
      "Ġdiffer": 804,
      "Ġam": 805,
      "Ġsuit": 806,
      "Ġtime": 807,
      "Ġinst": 808,
      "ooth": 809,
      "Ġfree": 810,
      "material": 811,
      "Ġcm": 812,
      "bo": 813,
      "Ġdecor": 814,
      "Ġhel": 815,
      "Ġstand": 816,
      "Ġje": 817,
      "ans": 818,
      "Ġplastic": 819,
      "Ġmet": 820,
      "Ġfeel": 821,
      "iful": 822,
      "shirt": 823,
      "mm": 824,
      "Ġav": 825,
      "arr": 826,
      "ber": 827,
      "Ġsur": 828,
      "col": 829,
      "Ġart": 830,
      "Ġresist": 831,
      "az": 832,
      "day": 833,
      "ting": 834,
      "ark": 835,
      "Ġcasual": 836,
      "10": 837,
      "vers": 838,
      "ids": 839,
      "Ġpiec": 840,
      "ys": 841,
      "Ġmod": 842,
      "Ġmult": 843,
      "ular": 844,
      "Ġple": 845,
      "red": 846,
      "Ġproducts": 847,
      "Ġfull": 848,
      "Ġcam": 849,
      "Ġbag": 850,
      "Ġph": 851,
      "uf": 852,
      "Ġsup": 853,
      "Ġfashion": 854,
      "Ġsho": 855,
      "Ġgreat": 856,
      "Ġneed": 857,
      "Ġleather": 858,
      "ating": 859,
      "Ġwhen": 860,
      "Ġtop": 861,
      "Ġvery": 862,
      "Ġremo": 863,
      "raft": 864,
      "oth": 865,
      "Ġlif": 866,
      "Ġbeautiful": 867,
      "Ġcolour": 868,
      "row": 869,
      "Ġz": 870,
      "20": 871,
      "Ġ10": 872,
      "ustom": 873,
      "Ġsuper": 874,
      "Ġcharg": 875,
      "bl": 876,
      "ness": 877,
      "Ġbed": 878,
      "Ġdevice": 879,
      "ique": 880,
      "Ġanti": 881,
      "Ġitem": 882,
      "struct": 883,
      "Ġmat": 884,
      "vel": 885,
      "Ġpower": 886,
      "Ġgood": 887,
      "ors": 888,
      "Ġmay": 889,
      "this": 890,
      "ame": 891,
      "Ġgiv": 892,
      "ature": 893,
      "Ġdesigner": 894,
      "ari": 895,
      "Ġbrand": 896,
      "Ġtech": 897,
      "Ġlike": 898,
      "nder": 899,
      "Ġdi": 900,
      "Ġbody": 901,
      "own": 902,
      "Ġcovers": 903,
      "ott": 904,
      "urt": 905,
      "ĠĠ": 906,
      "Ġtem": 907,
      "ves": 908,
      "Ġnote": 909,
      "co": 910,
      "ild": 911,
      "Ġhead": 912,
      "Ġscratches": 913,
      "ccas": 914,
      "Ġprovides": 915,
      "Ġfo": 916,
      "Ġget": 917,
      "Ġser": 918,
      "Ġmin": 919,
      "Ġneck": 920,
      "Ġtechn": 921,
      "proof": 922,
      "Ġbab": 923,
      "Ġplease": 924,
      "Ġmakes": 925,
      "ner": 926,
      "Ġfeatures": 927,
      "Ġinches": 928,
      "made": 929,
      "Ġspecial": 930,
      "Ġtra": 931,
      "Ġcustom": 932,
      "Ġgu": 933,
      "Ġcare": 934,
      "rol": 935,
      "Ġele": 936,
      "âĢĻ": 937,
      "Ġmic": 938,
      "Ġwall": 939,
      "ction": 940,
      "Ġif": 941,
      "Ġallow": 942,
      "Ġdifferent": 943,
      "Ġcloth": 944,
      "ont": 945,
      "Ġhold": 946,
      "Ġed": 947,
      "Ġwithout": 948,
      "ung": 949,
      "Ġhair": 950,
      "tion": 951,
      "po": 952,
      "Ġover": 953,
      "ne": 954,
      "Ġreg": 955,
      "Ġfriend": 956,
      "arm": 957,
      "anc": 958,
      "Ġsol": 959,
      "Ġroom": 960,
      "Ġsurf": 961,
      "Âł": 962,
      "Ġsafe": 963,
      "way": 964,
      "atural": 965,
      "Ġwhite": 966,
      "Ġinstall": 967,
      "ication": 968,
      "esh": 969,
      "ery": 970,
      "arge": 971,
      "Ġcomes": 972,
      "Ġmon": 973,
      "Ġcap": 974,
      "Ġpur": 975,
      "ding": 976,
      "Ġstre": 977,
      "Ġpair": 978,
      "era": 979,
      "oor": 980,
      "Ġyear": 981,
      "Ġgirls": 982,
      "ability": 983,
      "Ġparty": 984,
      "ake": 985,
      "Ġcor": 986,
      "50": 987,
      "Ġblue": 988,
      "Ġbaby": 989,
      "io": 990,
      "Ġtemper": 991,
      "size": 992,
      "Ġens": 993,
      "urn": 994,
      "sm": 995,
      "olog": 996,
      "fr": 997,
      "top": 998,
      "fit": 999,
      "Ġstra": 1000,
      "Ġaf": 1001,
      "Ġem": 1002,
      "Ġspe": 1003,
      "ains": 1004,
      "ping": 1005,
      "Ġsteel": 1006,
      "Ġpiece": 1007,
      "Ġkids": 1008,
      "Ġbre": 1009,
      "Ġbott": 1010,
      "Ġwhile": 1011,
      "Ġef": 1012,
      "anty": 1013,
      "Ġsare": 1014,
      "ideal": 1015,
      "Ġsmart": 1016,
      "Ġthan": 1017,
      "Ġunique": 1018,
      "Ġdet": 1019,
      "Ġsim": 1020,
      "Ġnatural": 1021,
      "Ġsy": 1022,
      "Ġbox": 1023,
      "wear": 1024,
      "Ġdesigns": 1025,
      "Ġag": 1026,
      "ved": 1027,
      "Ġdust": 1028,
      "Ġprovide": 1029,
      "Ġcard": 1030,
      "Ġmax": 1031,
      "ape": 1032,
      "ould": 1033,
      "iron": 1034,
      "Ġ.": 1035,
      "package": 1036,
      "amp": 1037,
      "Ġcolors": 1038,
      "tc": 1039,
      "form": 1040,
      "Ġpock": 1041,
      "etic": 1042,
      "led": 1043,
      "Ġbuttons": 1044,
      "Ġtable": 1045,
      "ient": 1046,
      "Ġtouch": 1047,
      "Ġnon": 1048,
      "Ġfra": 1049,
      "Ġslim": 1050,
      "ior": 1051,
      "weight": 1052,
      "ology": 1053,
      "attern": 1054,
      "ones": 1055,
      "Ġresistant": 1056,
      "Ġcamera": 1057,
      "erg": 1058,
      "Ġaccessor": 1059,
      "Ġavail": 1060,
      "Ġjew": 1061,
      "Ġcre": 1062,
      "Ġ12": 1063,
      "Ġsmooth": 1064,
      "Ġgives": 1065,
      "ams": 1066,
      "Ġlife": 1067,
      "Ġwell": 1068,
      "ures": 1069,
      "Ġgive": 1070,
      "uit": 1071,
      "Ġthey": 1072,
      "Ġwood": 1073,
      "els": 1074,
      "no": 1075,
      "wh": 1076,
      "Ġeven": 1077,
      "ount": 1078,
      "100": 1079,
      "atible": 1080,
      "Ġcases": 1081,
      "achine": 1082,
      "Ġoccas": 1083,
      "Ġeleg": 1084,
      "phone": 1085,
      "just": 1086,
      "Ġshoes": 1087,
      "Ġgo": 1088,
      "Ġtechnology": 1089,
      "alax": 1090,
      "Ġmost": 1091,
      "Ġcollect": 1092,
      "Ġble": 1093,
      "als": 1094,
      "Ġsleeve": 1095,
      "Ġpo": 1096,
      "elf": 1097,
      "Ġcontrol": 1098,
      "Ġinter": 1099,
      "Ġtre": 1100,
      "Ġdel": 1101,
      "ond": 1102,
      "Ġrange": 1103,
      "alaxy": 1104,
      "Ġsurface": 1105,
      "lent": 1106,
      "Ġside": 1107,
      "Ġins": 1108,
      "Ġact": 1109,
      "Ġstor": 1110,
      "Ġjust": 1111,
      "Ġshirt": 1112,
      "Ġeasily": 1113,
      "Ġ20": 1114,
      "ply": 1115,
      "Ġabs": 1116,
      "Ġetc": 1117,
      "arranty": 1118,
      "be": 1119,
      "Ġthem": 1120,
      "Ġusing": 1121,
      "Ġsupport": 1122,
      "Ġ*": 1123,
      "ized": 1124,
      "aist": 1125,
      "Ġair": 1126,
      "Ġcraft": 1127,
      "Ġbet": 1128,
      "Ġel": 1129,
      "Ġ0": 1130,
      "Ġsilic": 1131,
      "itt": 1132,
      "Ġclass": 1133,
      "ix": 1134,
      "Ġeach": 1135,
      "Ġbatter": 1136,
      "Ġregular": 1137,
      "ium": 1138,
      "Ġpackage": 1139,
      "ning": 1140,
      "Ġult": 1141,
      "oy": 1142,
      "âľ": 1143,
      "ian": 1144,
      "Ġbum": 1145,
      "Ġavailable": 1146,
      "60": 1147,
      "Ġstick": 1148,
      "Ġform": 1149,
      "ture": 1150,
      "Ġme": 1151,
      "Ġsw": 1152,
      "Ġsmall": 1153,
      "tr": 1154,
      "des": 1155,
      "ts": 1156,
      "Ġnight": 1157,
      "ester": 1158,
      "Ġunder": 1159,
      "tract": 1160,
      "Ġinto": 1161,
      "Ġac": 1162,
      "room": 1163,
      "Ġtw": 1164,
      "nect": 1165,
      "Ġsuitable": 1166,
      "Ġma": 1167,
      "Ġbel": 1168,
      "Ġkn": 1169,
      "bon": 1170,
      "----": 1171,
      "ants": 1172,
      "get": 1173,
      "ety": 1174,
      "Ġlast": 1175,
      "Ġindia": 1176,
      "Ġinstruct": 1177,
      "ving": 1178,
      "color": 1179,
      "Ġpe": 1180,
      "Ġmachine": 1181,
      "Ġplay": 1182,
      "Ġround": 1183,
      "Ġgold": 1184,
      "Ġbir": 1185,
      "Ġwal": 1186,
      "Ġvari": 1187,
      "oss": 1188,
      "vent": 1189,
      "Ġey": 1190,
      "amsung": 1191,
      "lex": 1192,
      "Ġmicro": 1193,
      "Ġwarranty": 1194,
      "print": 1195,
      "Ġprec": 1196,
      "12": 1197,
      "easy": 1198,
      "light": 1199,
      "Ġideal": 1200,
      "Ġsaree": 1201,
      "Ġoil": 1202,
      "Ġdue": 1203,
      "Ġstain": 1204,
      "ote": 1205,
      "Ġtrend": 1206,
      "Ġoffice": 1207,
      "Ġconnect": 1208,
      "Ġcer": 1209,
      "Ġelegant": 1210,
      "inal": 1211,
      "Ġpc": 1212,
      "ufact": 1213,
      "play": 1214,
      "inger": 1215,
      "Ġadjust": 1216,
      "ux": 1217,
      "Ġ\"": 1218,
      "yl": 1219,
      "imum": 1220,
      "Ġport": 1221,
      "Ġusb": 1222,
      "Ġcollection": 1223,
      "Ġmetal": 1224,
      "Ġamaz": 1225,
      "mer": 1226,
      "Ġlove": 1227,
      "Ġsec": 1228,
      "ments": 1229,
      "pre": 1230,
      "ience": 1231,
      "Ġlap": 1232,
      "aily": 1233,
      "Ġip": 1234,
      "Ġports": 1235,
      "cess": 1236,
      "itional": 1237,
      "Ġsides": 1238,
      "fore": 1239,
      "Ġopen": 1240,
      "ke": 1241,
      "Ġmag": 1242,
      "Ġsamsung": 1243,
      "Ġslight": 1244,
      "Ġphot": 1245,
      "Ġslip": 1246,
      "Ġmot": 1247,
      "wash": 1248,
      "Ġpers": 1249,
      "Ġgra": 1250,
      "30": 1251,
      "Ġrub": 1252,
      "car": 1253,
      "Ġshock": 1254,
      "free": 1255,
      "imens": 1256,
      "ious": 1257,
      "Ġmanufact": 1258,
      "Ġdam": 1259,
      "Ġfront": 1260,
      "Ġafter": 1261,
      "Ġgrip": 1262,
      "ages": 1263,
      "ĠâĢ": 1264,
      "gan": 1265,
      "Ġfil": 1266,
      "ex": 1267,
      "Ġextra": 1268,
      "Ġstrong": 1269,
      "ired": 1270,
      "Ġcompatible": 1271,
      "air": 1272,
      "enc": 1273,
      "Ġpaint": 1274,
      "ank": 1275,
      "Ġthere": 1276,
      "uc": 1277,
      "Ġcool": 1278,
      "Ġbattery": 1279,
      "Ġwaist": 1280,
      "ivers": 1281,
      "ices": 1282,
      "ining": 1283,
      "Ġdro": 1284,
      "Ġexper": 1285,
      "Ġlaptop": 1286,
      "use": 1287,
      "Ġpattern": 1288,
      "Ġagain": 1289,
      "..": 1290,
      "Ġdaily": 1291,
      "Ġincluded": 1292,
      "Ġyears": 1293,
      "Ġreal": 1294,
      "Ġgalaxy": 1295,
      "Ġdisplay": 1296,
      "Ġsilk": 1297,
      "Ġve": 1298,
      "thday": 1299,
      "Ġprotects": 1300,
      "itchen": 1301,
      "sc": 1302,
      "Ġaccessories": 1303,
      "ll": 1304,
      "high": 1305,
      "Ġeffect": 1306,
      "Ġabout": 1307,
      "Ġcarry": 1308,
      "Ġwide": 1309,
      "Ġtrad": 1310,
      "Ġplus": 1311,
      "Ġcomple": 1312,
      "Ġmeas": 1313,
      "Ġmodel": 1314,
      "Ġprinting": 1315,
      "product": 1316,
      "Ġperson": 1317,
      "Ġlightweight": 1318,
      "cel": 1319,
      "40": 1320,
      "Ġstainless": 1321,
      "Ġhelp": 1322,
      "Ġhouse": 1323,
      "Ġext": 1324,
      "Ġpad": 1325,
      "xl": 1326,
      "Ġclos": 1327,
      "ative": 1328,
      "ason": 1329,
      "Ġled": 1330,
      "Ġass": 1331,
      "Ġbefore": 1332,
      "pu": 1333,
      "avy": 1334,
      "80": 1335,
      "ouble": 1336,
      "Ġfoot": 1337,
      "ty": 1338,
      "Ġatt": 1339,
      "Ġstorage": 1340,
      "Ġear": 1341,
      "ification": 1342,
      "Ġdra": 1343,
      "Ġshe": 1344,
      "Ġbirthday": 1345,
      "Ġkitchen": 1346,
      "ãĢ": 1347,
      "Ġlay": 1348,
      "ms": 1349,
      "Ġorig": 1350,
      "Ġboth": 1351,
      "yle": 1352,
      "Ġshape": 1353,
      "Ġgen": 1354,
      "rade": 1355,
      "Ġmaking": 1356,
      "Ġfir": 1357,
      "Ġsure": 1358,
      "ips": 1359,
      "Ġwed": 1360,
      "Ġcomb": 1361,
      "/>": 1362,
      "Ġremove": 1363,
      "Ġchild": 1364,
      "iving": 1365,
      "Ġattract": 1366,
      "Ġincludes": 1367,
      "ave": 1368,
      "ðŁ": 1369,
      "friend": 1370,
      "Ġclear": 1371,
      "'t": 1372,
      "Ġheal": 1373,
      "ges": 1374,
      "Ġflex": 1375,
      "design": 1376,
      "Ġtheir": 1377,
      "Ġpic": 1378,
      "Ġrem": 1379,
      "ied": 1380,
      "ession": 1381,
      "Ġrequ": 1382,
      "Ġlooks": 1383,
      "Ġcush": 1384,
      "ks": 1385,
      "inch": 1386,
      "Ġcho": 1387,
      "Ġrubber": 1388,
      "25": 1389,
      "Ġfeet": 1390,
      "fl": 1391,
      "Ġfunction": 1392,
      ":-": 1393,
      "Ġblouse": 1394,
      "Ġswe": 1395,
      "Ġway": 1396,
      "ory": 1397,
      "read": 1398,
      "Ġthr": 1399,
      "ee": 1400,
      "oose": 1401,
      "Ġmed": 1402,
      "irr": 1403,
      "Ġprof": 1404,
      "Ġbas": 1405,
      "Ġpres": 1406,
      "15": 1407,
      "tch": 1408,
      "perfect": 1409,
      "Ġsolid": 1410,
      "Ġinstructions": 1411,
      "Ġdiam": 1412,
      "Ġimp": 1413,
      "ns": 1414,
      "Ġhang": 1415,
      "Ġorder": 1416,
      "Ġsaf": 1417,
      "Ġmug": 1418,
      "Ġret": 1419,
      "ilt": 1420,
      "''": 1421,
      "Ġ15": 1422,
      "Ġfits": 1423,
      "Ġorgan": 1424,
      "Ġprotector": 1425,
      "oon": 1426,
      "Ġwatch": 1427,
      "Ġplace": 1428,
      "fin": 1429,
      "Ġmaximum": 1430,
      "izes": 1431,
      "Ġpolyester": 1432,
      "Ġfood": 1433,
      "Ġsilicone": 1434,
      "Ġultra": 1435,
      "Ġ+": 1436,
      "Ġoriginal": 1437,
      "Ġwind": 1438,
      "Ġhelps": 1439,
      "ations": 1440,
      "Ġmatte": 1441,
      "gg": 1442,
      "Ġtwo": 1443,
      "Ġdurability": 1444,
      "âĺ": 1445,
      "Ġquick": 1446,
      "Ġagainst": 1447,
      "Ġsat": 1448,
      "he": 1449,
      "Ġconven": 1450,
      "Ġtool": 1451,
      "Ġmatch": 1452,
      "Ġwaterproof": 1453,
      "ised": 1454,
      "Ġspeak": 1455,
      "Ġstore": 1456,
      "Ġsilver": 1457,
      "Ġbuy": 1458,
      "Ġattractive": 1459,
      "ution": 1460,
      "Ġcomplete": 1461,
      "Ġcharging": 1462,
      "Ġthrough": 1463,
      "Ġcheck": 1464,
      "Ġwr": 1465,
      "Ġkey": 1466,
      "Ġenh": 1467,
      "Ġaut": 1468,
      "Ġwho": 1469,
      "outs": 1470,
      "Ġpocket": 1471,
      "Ġfam": 1472,
      "Ġperfectly": 1473,
      "Ġemb": 1474,
      "Ġcharger": 1475,
      "Ġcable": 1476,
      "Ġcushion": 1477,
      "Ġpure": 1478,
      "Ġshop": 1479,
      "ots": 1480,
      "cellent": 1481,
      "Ġhandle": 1482,
      "Ġmus": 1483,
      "gr": 1484,
      "Ġ:-": 1485,
      "stand": 1486,
      "ansp": 1487,
      "ittle": 1488,
      "ren": 1489,
      "Ġmulti": 1490,
      "Ġread": 1491,
      "Ġgreen": 1492,
      "Ġtempered": 1493,
      "cr": 1494,
      "Ġprevent": 1495,
      "Ġdouble": 1496,
      "Ġflip": 1497,
      "att": 1498,
      "ically": 1499,
      "pc": 1500,
      "Ġbetter": 1501,
      "Ġmonit": 1502,
      "ates": 1503,
      "her": 1504,
      "Ġimport": 1505,
      "wor": 1506,
      "Ġbumps": 1507,
      "Ġlarge": 1508,
      "Ġkurt": 1509,
      "od": 1510,
      "cle": 1511,
      "Ġiron": 1512,
      "Ġwid": 1513,
      "Ġcold": 1514,
      "Ġpan": 1515,
      "Ġcur": 1516,
      "Ġjack": 1517,
      "roid": 1518,
      "care": 1519,
      "Ġkind": 1520,
      "Ġthick": 1521,
      "Ġabsor": 1522,
      "pose": 1523,
      "Ġstandard": 1524,
      "Ġelect": 1525,
      "con": 1526,
      "Ġaway": 1527,
      "ement": 1528,
      "Ġmagn": 1529,
      "Ġoffer": 1530,
      "Ġtex": 1531,
      "Ġhy": 1532,
      "Ġmu": 1533,
      "Ġ30": 1534,
      "Ġlittle": 1535,
      "Ġappe": 1536,
      "eter": 1537,
      "ier": 1538,
      "mal": 1539,
      "Ġexperience": 1540,
      "Ġsens": 1541,
      "Ġname": 1542,
      "18": 1543,
      "Ġproof": 1544,
      "man": 1545,
      "Ġslightly": 1546,
      "Ġhealth": 1547,
      "Ġholder": 1548,
      "line": 1549,
      "Ġlow": 1550,
      "Ġhot": 1551,
      "Ġoccasion": 1552,
      "Ġpill": 1553,
      "Ġwire": 1554,
      "Ġbrush": 1555,
      "carbon": 1556,
      "Ġoutd": 1557,
      "fabric": 1558,
      "Ġvol": 1559,
      "Ġgifts": 1560,
      "sl": 1561,
      "ool": 1562,
      "Ġbul": 1563,
      "ision": 1564,
      "Ġwarm": 1565,
      "Ġtpu": 1566,
      "Ġlat": 1567,
      "Ġframe": 1568,
      "Ġsun": 1569,
      "Ġbath": 1570,
      "bs": 1571,
      "Ġpaper": 1572,
      "rown": 1573,
      "Ġcurt": 1574,
      "Ġcond": 1575,
      "Ġdire": 1576,
      "Ġface": 1577,
      "Ġband": 1578,
      "iew": 1579,
      "Ġensure": 1580,
      "Ġshow": 1581,
      "Ġtake": 1582,
      "Ġcr": 1583,
      "Ġdoes": 1584,
      "ros": 1585,
      "16": 1586,
      "ellow": 1587,
      "nded": 1588,
      "Ġallows": 1589,
      "unning": 1590,
      "carbonate": 1591,
      "Ġzip": 1592,
      "Ġeye": 1593,
      "inter": 1594,
      "nic": 1595,
      "Ġheat": 1596,
      "Ġcontact": 1597,
      "Ġtraditional": 1598,
      "Ġstitch": 1599,
      "Ġball": 1600,
      "Ġdig": 1601,
      "Ġproper": 1602,
      "Ġrepl": 1603,
      "Ġextre": 1604,
      "ok": 1605,
      "Ġboys": 1606,
      "Ġsn": 1607,
      "uring": 1608,
      "ellery": 1609,
      "Ġflat": 1610,
      "Ġcreat": 1611,
      "ibility": 1612,
      "Ġwallet": 1613,
      "rap": 1614,
      "ours": 1615,
      "Ġheight": 1616,
      "black": 1617,
      "Ġbreath": 1618,
      "uff": 1619,
      "Ġinc": 1620,
      "Ġaround": 1621,
      "ital": 1622,
      "Ġfast": 1623,
      "Ġspace": 1624,
      "Ġelastic": 1625,
      "Ġstretch": 1626,
      "Ġsome": 1627,
      "Ġlayer": 1628,
      "Ġvary": 1629,
      "arant": 1630,
      "Ġmeasure": 1631,
      "Ġlatest": 1632,
      "Ġtravel": 1633,
      "Ġtransp": 1634,
      "11": 1635,
      "Ġsports": 1636,
      "Ġtrans": 1637,
      "Ġinstallation": 1638,
      "Ġfinger": 1639,
      "Ġhd": 1640,
      "Ġdimens": 1641,
      "Ġinside": 1642,
      "set": 1643,
      "Ġoffers": 1644,
      "pa": 1645,
      "Ġcup": 1646,
      "alf": 1647,
      "ins": 1648,
      "Ġfriendly": 1649,
      "Ġadjustable": 1650,
      "Ġent": 1651,
      "Ġedge": 1652,
      "ale": 1653,
      "icol": 1654,
      "Ġpink": 1655,
      "Ġjewellery": 1656,
      "Ġwedding": 1657,
      "__": 1658,
      "Ġsafety": 1659,
      ";</": 1660,
      "Ġnum": 1661,
      "Ġexcellent": 1662,
      "Ġrel": 1663,
      "Ġbeen": 1664,
      "Ġfriends": 1665,
      "Ġbottom": 1666,
      "comp": 1667,
      "Ġlasting": 1668,
      "Ġval": 1669,
      "Ġdetail": 1670,
      "Ġi": 1671,
      "Ġmaterials": 1672,
      "Ġappro": 1673,
      "Ġmar": 1674,
      "iver": 1675,
      "dern": 1676,
      "arent": 1677,
      "oul": 1678,
      "Ġring": 1679,
      "ose": 1680,
      "Ġcons": 1681,
      "ded": 1682,
      "Ġpillow": 1683,
      "Ġfold": 1684,
      "Ġsell": 1685,
      "Ġserv": 1686,
      "Ġmas": 1687,
      "Ġpress": 1688,
      "ume": 1689,
      "Ġfine": 1690,
      "Ġperform": 1691,
      "Ġindian": 1692,
      "Ġtrendy": 1693,
      "Ġlet": 1694,
      "acity": 1695,
      "Ġfamily": 1696,
      "Ġguarant": 1697,
      "Ġmirr": 1698,
      "af": 1699,
      "Ġmm": 1700,
      "Ġkeeps": 1701,
      "Ġpolycarbonate": 1702,
      "Ġprovid": 1703,
      "res": 1704,
      "âľĶ": 1705,
      "Ġoutdoor": 1706,
      "Ġconvenient": 1707,
      "Ġint": 1708,
      "joy": 1709,
      "Ġnor": 1710,
      "Ġmuch": 1711,
      "oll": 1712,
      "Ġmark": 1713,
      "ibr": 1714,
      "Ġthin": 1715,
      "thetic": 1716,
      "app": 1717,
      "clus": 1718,
      "iss": 1719,
      "ination": 1720,
      "Ġsleeves": 1721,
      "Ġitems": 1722,
      "Ġincluding": 1723,
      "Ġviv": 1724,
      "uce": 1725,
      "Ġdon": 1726,
      "stem": 1727,
      "quality": 1728,
      "Ġdirect": 1729,
      "Ġsizes": 1730,
      "ject": 1731,
      "de": 1732,
      "Ġinner": 1733,
      "crip": 1734,
      "Ġmany": 1735,
      "iber": 1736,
      "Ġbright": 1737,
      "Ġpost": 1738,
      "Ġopt": 1739,
      "hic": 1740,
      "board": 1741,
      "Ġsyn": 1742,
      "Ġlens": 1743,
      "Ġ18": 1744,
      "Ġ24": 1745,
      "Ġsuperior": 1746,
      "mult": 1747,
      "put": 1748,
      "Ġkurta": 1749,
      "length": 1750,
      "Ġmem": 1751,
      "Ġpu": 1752,
      "ally": 1753,
      "Ġimpact": 1754,
      "Ġamazon": 1755,
      "Ġredmi": 1756,
      "Ġstrength": 1757,
      "Ġchoice": 1758,
      "uxur": 1759,
      "Ġsuch": 1760,
      "Ġbottle": 1761,
      "Ġthen": 1762,
      "Ġwant": 1763,
      "Ġedges": 1764,
      "suit": 1765,
      "aging": 1766,
      "Ġsystem": 1767,
      "Ġadap": 1768,
      "Ġdeg": 1769,
      "Ġshort": 1770,
      "Ġmodern": 1771,
      "Ġimage": 1772,
      "phones": 1773,
      "Ġliving": 1774,
      "Ġcrafted": 1775,
      "please": 1776,
      "Ġsleep": 1777,
      "Ġkit": 1778,
      "Ġput": 1779,
      "ingle": 1780,
      "Ġpockets": 1781,
      "Ġwearing": 1782,
      ">&": 1783,
      "aces": 1784,
      "Ġlock": 1785,
      "ling": 1786,
      "Ġwidth": 1787,
      "Ġcleaning": 1788,
      "cription": 1789,
      "amic": 1790,
      "ðĿ": 1791,
      "Ġdown": 1792,
      "Ġmirror": 1793,
      "Ġflexible": 1794,
      "Ġeth": 1795,
      "Ġsand": 1796,
      "Ġcute": 1797,
      "Ġgrade": 1798,
      "ĠĠĠ": 1799,
      "Ġrich": 1800,
      "Ġpouch": 1801,
      "Ġprocess": 1802,
      "Ġworld": 1803,
      "Ġdirt": 1804,
      "Ġdamage": 1805,
      "Ġview": 1806,
      "Ġher": 1807,
      "ob": 1808,
      "Ġmount": 1809,
      "Ġhighly": 1810,
      "Ġvis": 1811,
      "Ġheavy": 1812,
      "Ġclassic": 1813,
      ").": 1814,
      "ured": 1815,
      "Ġfitting": 1816,
      "Ġfeature": 1817,
      "Ġbar": 1818,
      "19": 1819,
      "Ġ/><": 1820,
      "ately": 1821,
      "Ġbec": 1822,
      "Ġmaint": 1823,
      "Ġiphone": 1824,
      "Ġhours": 1825,
      "pers": 1826,
      "cor": 1827,
      "Ġfest": 1828,
      "Ġsame": 1829,
      "Ġ16": 1830,
      "Ġenjoy": 1831,
      "Ġvide": 1832,
      "Ġclosure": 1833,
      "Ġjeans": 1834,
      "shirts": 1835,
      "wn": 1836,
      "Ġeng": 1837,
      "sle": 1838,
      "ray": 1839,
      "Ġdrops": 1840,
      "oulder": 1841,
      "ways": 1842,
      "Ġoccasions": 1843,
      "Ġdoor": 1844,
      "Ġref": 1845,
      "viron": 1846,
      "Ġappl": 1847,
      "Ġmoist": 1848,
      "Ġeveryday": 1849,
      "Ġlin": 1850,
      "mely": 1851,
      "Ġcombo": 1852,
      "Ġspeed": 1853,
      "Ġmonth": 1854,
      "Ġmonitor": 1855,
      "Ġwindow": 1856,
      "Ġgre": 1857,
      "Ġuv": 1858,
      "Ġbleach": 1859,
      "band": 1860,
      "Ġfirst": 1861,
      "Ġsal": 1862,
      "fee": 1863,
      "Ġsum": 1864,
      "Ġsound": 1865,
      "Ġright": 1866,
      "Ġfav": 1867,
      "Ġsimple": 1868,
      "Ġluxur": 1869,
      "Ġ11": 1870,
      "ped": 1871,
      "Ġ;": 1872,
      "Ġapp": 1873,
      "Ġhalf": 1874,
      "Ġrest": 1875,
      "imal": 1876,
      "Ġjewel": 1877,
      "raph": 1878,
      "Ġcapacity": 1879,
      "premium": 1880,
      "ption": 1881,
      "âĺħ": 1882,
      "Ġfresh": 1883,
      "vas": 1884,
      "Ġduring": 1885,
      "iness": 1886,
      "Ġbreak": 1887,
      "Ġcoating": 1888,
      "Ġ50": 1889,
      "Ġarm": 1890,
      "Ġvehic": 1891,
      "ific": 1892,
      "Ġethnic": 1893,
      "ds": 1894,
      "Ġperformance": 1895,
      "ctions": 1896,
      "oney": 1897,
      "Ġkeeping": 1898,
      "oid": 1899,
      "Ġcontain": 1900,
      "Ġyellow": 1901,
      "Ġseason": 1902,
      "umin": 1903,
      "Ġhands": 1904,
      "ables": 1905,
      "Ġearr": 1906,
      "fic": 1907,
      "ential": 1908,
      "Ġprofession": 1909,
      "Ġvibr": 1910,
      "style": 1911,
      "au": 1912,
      "Ġtemperature": 1913,
      "vironment": 1914,
      "Ġwon": 1915,
      "Ġstrap": 1916,
      "Ġdigital": 1917,
      "Ġmust": 1918,
      "Ġmotor": 1919,
      "Ġbuilt": 1920,
      "Ġnumber": 1921,
      "Ġcontents": 1922,
      "ively": 1923,
      "Ġwooden": 1924,
      "âĿ": 1925,
      "Ġnow": 1926,
      "Ġmini": 1927,
      "Ġ40": 1928,
      "dr": 1929,
      "Ġactual": 1930,
      "Ġsingle": 1931,
      "spec": 1932,
      "ware": 1933,
      "Ġful": 1934,
      "Ġbase": 1935,
      "med": 1936,
      "14": 1937,
      "large": 1938,
      "Ġdist": 1939,
      "Ġcharge": 1940,
      "ha": 1941,
      "soft": 1942,
      "Ġdraw": 1943,
      "comme": 1944,
      "aving": 1945,
      "Ġdecoration": 1946,
      "urdy": 1947,
      "Ġnever": 1948,
      "iple": 1949,
      "slee": 1950,
      "work": 1951,
      "Ġexclus": 1952,
      "Ġgent": 1953,
      "Ġensures": 1954,
      "uet": 1955,
      "ove": 1956,
      "Ġchildren": 1957,
      "ym": 1958,
      "Ġpants": 1959,
      "Ġcert": 1960,
      "isf": 1961,
      "friendly": 1962,
      "Ġ14": 1963,
      "Ġservice": 1964,
      "ident": 1965,
      "Ġnormal": 1966,
      "ipe": 1967,
      "Ġvivo": 1968,
      "Ġconstruct": 1969,
      "Ġink": 1970,
      "17": 1971,
      "ivity": 1972,
      "ered": 1973,
      "Ġextremely": 1974,
      "ause": 1975,
      "Ġadapter": 1976,
      "Ġspeaker": 1977,
      "Ġtexture": 1978,
      "Ġmedium": 1979,
      "Ġbedroom": 1980,
      "Ġcustomer": 1981,
      "Ġfunctions": 1982,
      "tings": 1983,
      "udio": 1984,
      "ograph": 1985,
      "ats": 1986,
      "oun": 1987,
      "Ġwashable": 1988,
      "Ġappear": 1989,
      "nov": 1990,
      "Ġbags": 1991,
      "ute": 1992,
      "Ġthread": 1993,
      "Ġend": 1994,
      "ĠâĢĵ": 1995,
      "Ġcof": 1996,
      "ics": 1997,
      "Ġess": 1998,
      "Ġoper": 1999,
      "Ġlooking": 2000,
      "ma": 2001,
      "Ġpcs": 2002,
      "Ġdays": 2003,
      "Ġexp": 2004,
      "Ġcoffee": 2005,
      "Ġalways": 2006,
      "Ġtim": 2007,
      "Ġjewelry": 2008,
      "à¤": 2009,
      "eric": 2010,
      "Ġenvironment": 2011,
      "book": 2012,
      "Ġcoll": 2013,
      "Ġchart": 2014,
      "Ġsweat": 2015,
      "Ġtoy": 2016,
      "ator": 2017,
      "Ġbring": 2018,
      "hand": 2019,
      "Ġpieces": 2020,
      "Ġchoose": 2021,
      "Ġbrown": 2022,
      "Ġcanvas": 2023,
      "robe": 2024,
      "Ġhol": 2025,
      "uetooth": 2026,
      "Ġnet": 2027,
      "Ġtough": 2028,
      "su": 2029,
      "Ġcop": 2030,
      "note": 2031,
      "Ġpersonal": 2032,
      "Ġbro": 2033,
      "uine": 2034,
      "Ġtest": 2035,
      "Ġbreathable": 2036,
      "Ġprotective": 2037,
      "omi": 2038,
      "back": 2039,
      "ert": 2040,
      "âĢĿ": 2041,
      "Ġcolours": 2042,
      "Ġlighting": 2043,
      "ml": 2044,
      "ron": 2045,
      "ities": 2046,
      "Ġhandmade": 2047,
      "Ġblend": 2048,
      "pcs": 2049,
      "Ġsign": 2050,
      "Ġgard": 2051,
      "000": 2052,
      "Ġstone": 2053,
      "Ġapprox": 2054,
      "Ġpicture": 2055,
      "Ġapply": 2056,
      "Ġ360": 2057,
      "Ġsynthetic": 2058,
      "outer": 2059,
      "Ġsummer": 2060,
      "Ġsatisf": 2061,
      "Ġfall": 2062,
      "Ġdish": 2063,
      "ane": 2064,
      "ified": 2065,
      "Ġportable": 2066,
      "Ġboard": 2067,
      "Ġpot": 2068,
      "redmi": 2069,
      "eng": 2070,
      "Ġbelt": 2071,
      "Ġlip": 2072,
      "Ġbeauty": 2073,
      "fits": 2074,
      "Ġsturdy": 2075,
      "ening": 2076,
      "Ġdark": 2077,
      "atic": 2078,
      "Ġabsorb": 2079,
      "Ġdevices": 2080,
      "acement": 2081,
      "Ġprom": 2082,
      "Ġtransparent": 2083,
      "Ġprints": 2084,
      "ky": 2085,
      "Ġneeds": 2086,
      "Ġward": 2087,
      "anced": 2088,
      "Ġpen": 2089,
      "etime": 2090,
      "Ġdiameter": 2091,
      "Ġphotograph": 2092,
      "Ġcart": 2093,
      "not": 2094,
      "its": 2095,
      "Ġimpro": 2096,
      "Ġcarp": 2097,
      "Ġrequired": 2098,
      "Ġbeing": 2099,
      "Ġdegree": 2100,
      "Ġreli": 2101,
      "orn": 2102,
      "24": 2103,
      "Ġline": 2104,
      "Ġclothes": 2105,
      "Ġessential": 2106,
      "Ġann": 2107,
      "ole": 2108,
      "Ġmulticol": 2109,
      "Ġsecure": 2110,
      "Ġavoid": 2111,
      "ene": 2112,
      "Ġ13": 2113,
      "Ġshoulder": 2114,
      "13": 2115,
      "Ġsep": 2116,
      "Ġones": 2117,
      "uck": 2118,
      "iaomi": 2119,
      "features": 2120,
      "Ġshorts": 2121,
      "Ġmonths": 2122,
      "ship": 2123,
      "\",": 2124,
      "Ġseries": 2125,
      "Ġcell": 2126,
      "she": 2127,
      "Ġenough": 2128,
      "izer": 2129,
      "cy": 2130,
      "ancy": 2131,
      "Ġguarantee": 2132,
      "Ġvehicle": 2133,
      "ryst": 2134,
      "vents": 2135,
      "iel": 2136,
      "ween": 2137,
      "Ġtow": 2138,
      "Ġmix": 2139,
      "Ġwardrobe": 2140,
      "Ġbal": 2141,
      "Ġbluetooth": 2142,
      "Ġcook": 2143,
      "Ġturn": 2144,
      ">:": 2145,
      "ife": 2146,
      "ãĢĳ": 2147,
      "hes": 2148,
      "aste": 2149,
      "ãĢĲ": 2150,
      "Ġembroid": 2151,
      "Ġprofessional": 2152,
      "Ġrecomme": 2153,
      "Ġcome": 2154,
      "bra": 2155,
      "Ġwheel": 2156,
      "Ġwhere": 2157,
      "Ġappearance": 2158,
      "oral": 2159,
      "ross": 2160,
      "Ġfade": 2161,
      "Ġbetween": 2162,
      "Ġmagnetic": 2163,
      "ention": 2164,
      "Ġequ": 2165,
      "ters": 2166,
      "Ġadv": 2167,
      "erm": 2168,
      "na": 2169,
      "Ġcontent": 2170,
      "end": 2171,
      "protect": 2172,
      "Ġready": 2173,
      "Ġwrap": 2174,
      "Ġcontains": 2175,
      "Ġship": 2176,
      "aa": 2177,
      "Ġsmartphone": 2178,
      "self": 2179,
      "nal": 2180,
      "resist": 2181,
      "Ġsepar": 2182,
      "Ġfully": 2183,
      "Ġshoe": 2184,
      "imate": 2185,
      "Ġenerg": 2186,
      "Ġang": 2187,
      "&#": 2188,
      "Ġgem": 2189,
      "Ġspr": 2190,
      "Ġpurch": 2191,
      "Ġxiaomi": 2192,
      "Ġresult": 2193,
      "Ġguard": 2194,
      "mas": 2195,
      "press": 2196,
      "Ġstay": 2197,
      "##": 2198,
      "Ġpos": 2199,
      "Ġlevel": 2200,
      "Ġmusic": 2201,
      "Ġtops": 2202,
      "eth": 2203,
      "lic": 2204,
      "Ġml": 2205,
      "Ġspecially": 2206,
      "Ġamazing": 2207,
      "ational": 2208,
      "Ġflow": 2209,
      "ali": 2210,
      "Ġbig": 2211,
      "Ġvibrant": 2212,
      "Ġformal": 2213,
      "cas": 2214,
      "any": 2215,
      "Ġsettings": 2216,
      "aw": 2217,
      "Ġparts": 2218,
      "Ġsch": 2219,
      "Ġlace": 2220,
      "Ġself": 2221,
      "bre": 2222,
      "70": 2223,
      "Ġdresses": 2224,
      "Ġroll": 2225,
      "ense": 2226,
      "Ġrunning": 2227,
      "Ġscre": 2228,
      "Ġhapp": 2229,
      "Ġvers": 2230,
      "side": 2231,
      "ners": 2232,
      "fid": 2233,
      "Ġcall": 2234,
      "Ġfurn": 2235,
      "ars": 2236,
      "Ġtea": 2237,
      "ler": 2238,
      "ðĿĲ": 2239,
      "gen": 2240,
      "Ġseed": 2241,
      "ads": 2242,
      "Ġfind": 2243,
      "ugg": 2244,
      "Ġshould": 2245,
      "Ġbus": 2246,
      "ming": 2247,
      "Ġdimensions": 2248,
      "Ġown": 2249,
      "Ġprice": 2250,
      "Ġgenuine": 2251,
      "Ġphoto": 2252,
      "Ġtight": 2253,
      "Ġremov": 2254,
      "craft": 2255,
      "Ġceramic": 2256,
      "Ġshell": 2257,
      "Ġcoverage": 2258,
      "Ġannivers": 2259,
      "irc": 2260,
      "Ġproble": 2261,
      ";<": 2262,
      "Ġflower": 2263,
      "ced": 2264,
      "Ġcompact": 2265,
      "Ġvideo": 2266,
      "Ġcreate": 2267,
      "Ġenhance": 2268,
      "Ġwhat": 2269,
      "Ġdog": 2270,
      "Ġcutouts": 2271,
      "arp": 2272,
      "Ġut": 2273,
      "long": 2274,
      "Ġ19": 2275,
      "ading": 2276,
      "ines": 2277,
      "Ġrece": 2278,
      "Ġhook": 2279,
      "itive": 2280,
      "ract": 2281,
      "Ġmove": 2282,
      "und": 2283,
      "Ġcryst": 2284,
      "Ġshown": 2285,
      "Ġsour": 2286,
      "ances": 2287,
      "Ġresistance": 2288,
      "Ġcomplet": 2289,
      "Ġloved": 2290,
      "ord": 2291,
      "rist": 2292,
      "Ġfeeling": 2293,
      "sleeve": 2294,
      "Ġoppo": 2295,
      "Ġfashionable": 2296,
      "Ġfloral": 2297,
      "Ġtreat": 2298,
      "Ġsqu": 2299,
      "blue": 2300,
      "Ġmanual": 2301,
      "Ġattach": 2302,
      "Ġcopper": 2303,
      "stone": 2304,
      "Ġchem": 2305,
      "Ġconstruction": 2306,
      "Ġapple": 2307,
      "Ġsimply": 2308,
      "Ġearrings": 2309,
      "Ġautom": 2310,
      "âĿ¤": 2311,
      "with": 2312,
      "75": 2313,
      "Ġalumin": 2314,
      "Ġhanging": 2315,
      "Ġeco": 2316,
      "Ġpow": 2317,
      "colour": 2318,
      "Ġpet": 2319,
      "tage": 2320,
      "Ġstud": 2321,
      "Ġpurpose": 2322,
      "ency": 2323,
      "king": 2324,
      "ata": 2325,
      "Ġtak": 2326,
      "Ġpolish": 2327,
      "Ġbust": 2328,
      "Ġlad": 2329,
      "Ġteam": 2330,
      "thing": 2331,
      "Ġdecorative": 2332,
      "fully": 2333,
      "Ġdual": 2334,
      "Ġprecision": 2335,
      "ri": 2336,
      "Ġnail": 2337,
      "Ġmaintain": 2338,
      "ives": 2339,
      "olution": 2340,
      "Ġapplication": 2341,
      "Ġhaving": 2342,
      "urti": 2343,
      "Ġbow": 2344,
      "Ġaudio": 2345,
      "Ġbike": 2346,
      "Ġreplacement": 2347,
      "Ġfoam": 2348,
      "lace": 2349,
      "Ġtrack": 2350,
      "best": 2351,
      "Ġplated": 2352,
      "Ġseat": 2353,
      "Ġquest": 2354,
      "Ġstep": 2355,
      "atibility": 2356,
      "bu": 2357,
      "white": 2358,
      "Ġsheet": 2359,
      "dur": 2360,
      "Ġsole": 2361,
      "Ġincre": 2362,
      "Ġdrop": 2363,
      "por": 2364,
      "Ġaccur": 2365,
      "gl": 2366,
      "Ġproviding": 2367,
      "Ġbrass": 2368,
      "Ġimported": 2369,
      "Ġwould": 2370,
      "where": 2371,
      "Ġgym": 2372,
      "Ġplug": 2373,
      "alent": 2374,
      "Ġcould": 2375,
      "Ġbathroom": 2376,
      "Ġblock": 2377,
      "Ġalong": 2378,
      "Ġsoap": 2379,
      "Ġselect": 2380,
      "**": 2381,
      "Ġelectric": 2382,
      "--------": 2383,
      "istic": 2384,
      "):": 2385,
      "Ġswitch": 2386,
      "hesive": 2387,
      "itions": 2388,
      "Ġgar": 2389,
      "36": 2390,
      "Ġfootwear": 2391,
      "Ġwireless": 2392,
      "Ġmess": 2393,
      "Ġsee": 2394,
      "Ġtum": 2395,
      "neck": 2396,
      "Ġ25": 2397,
      "Ġfruit": 2398,
      "ifications": 2399,
      "Ġsilicon": 2400,
      "you": 2401,
      "Ġdetails": 2402,
      "Ġworn": 2403,
      "Ġbrings": 2404,
      "Ġzipper": 2405,
      "Ġtot": 2406,
      "Ġwinter": 2407,
      "Ġcal": 2408,
      "Ġpant": 2409,
      "Ġmoney": 2410,
      "Ġcent": 2411,
      "fa": 2412,
      "ted": 2413,
      "Ġlegg": 2414,
      "Ġjacket": 2415,
      "tures": 2416,
      "erc": 2417,
      "Ġremote": 2418,
      "piec": 2419,
      "Ġwashing": 2420,
      "Ġpat": 2421,
      "slip": 2422,
      "resistant": 2423,
      "Ġge": 2424,
      "Ġpar": 2425,
      "Ġdiamond": 2426,
      "Ġyourself": 2427,
      "Ġskirt": 2428,
      "Ġunit": 2429,
      "vc": 2430,
      "Ġce": 2431,
      "Ġphones": 2432,
      "ai": 2433,
      "pattern": 2434,
      "Ġaccessory": 2435,
      "Ġ60": 2436,
      "Ġcomm": 2437,
      "Ġresp": 2438,
      "Ġliqu": 2439,
      "Ġbedshe": 2440,
      "!,": 2441,
      "xic": 2442,
      "Ġtoo": 2443,
      "Ġcustomers": 2444,
      "Ġcards": 2445,
      "Ġau": 2446,
      "Ġplant": 2447,
      "sole": 2448,
      "Ġpop": 2449,
      "Ġfilm": 2450,
      "these": 2451,
      "Ġdefin": 2452,
      "ossible": 2453,
      "unch": 2454,
      "Ġpanel": 2455,
      "Ġdescription": 2456,
      "Ġfre": 2457,
      "Ġcurtain": 2458,
      "lo": 2459,
      "Ġless": 2460,
      "Ġarea": 2461,
      "Ġhood": 2462,
      "Ġinclude": 2463,
      "Ġcondition": 2464,
      "Ġadds": 2465,
      "Ġmind": 2466,
      "ople": 2467,
      "do": 2468,
      "32": 2469,
      "Ġdep": 2470,
      "comfort": 2471,
      "Ġfingerprint": 2472,
      "Ġpackaging": 2473,
      "Ġmeasurement": 2474,
      "case": 2475,
      "Ġdesk": 2476,
      "Ġmicrophone": 2477,
      "Ġleg": 2478,
      "Ġpainting": 2479,
      "Ġvariety": 2480,
      "Ġmoisture": 2481,
      "anti": 2482,
      "Ġvalue": 2483,
      "asting": 2484,
      "ristmas": 2485,
      "Ġcurtains": 2486,
      "aves": 2487,
      "Ġgifting": 2488,
      "Ġusage": 2489,
      "Ġimages": 2490,
      "occas": 2491,
      "ons": 2492,
      ">,": 2493,
      "ades": 2494,
      "Ġpeople": 2495,
      "Ġplac": 2496,
      "ama": 2497,
      "Ġrot": 2498,
      "Ġheart": 2499,
      "suitable": 2500,
      "Ġstat": 2501,
      "Ġequip": 2502,
      "Ġschool": 2503,
      "Ġmid": 2504,
      "Ġgentle": 2505,
      "Ġsticker": 2506,
      "round": 2507,
      "38": 2508,
      "Ġfavor": 2509,
      "Ġpowder": 2510,
      "Ġshirts": 2511,
      "35": 2512,
      "Ġsock": 2513,
      "most": 2514,
      "Ġgrey": 2515,
      "Ġden": 2516,
      "xy": 2517,
      "Ġreduce": 2518,
      "Ġcount": 2519,
      "Ġcompletely": 2520,
      "acter": 2521,
      "Ġbuck": 2522,
      "Ġsharp": 2523,
      "Ġenergy": 2524,
      "dd": 2525,
      "Ġ||": 2526,
      "Ġprecise": 2527,
      "Ġcarpet": 2528,
      "22": 2529,
      "Ġhow": 2530,
      "Ġlot": 2531,
      "Ġsarees": 2532,
      "Ġchemical": 2533,
      "Ġlamp": 2534,
      "Ġraised": 2535,
      "Ġboy": 2536,
      "Ġfloor": 2537,
      "Ġcolorful": 2538,
      "Ġshade": 2539,
      "Ġ90": 2540,
      "Ġshap": 2541,
      "Ġanniversary": 2542,
      "Ġcompart": 2543,
      "Ġdup": 2544,
      "sk": 2545,
      ":<": 2546,
      "ield": 2547,
      "Ġinf": 2548,
      "Ġvarious": 2549,
      "by": 2550,
      "ger": 2551,
      "durable": 2552,
      "Ġlights": 2553,
      "Ġplain": 2554,
      "Ġgrow": 2555,
      "Ġage": 2556,
      "Ġexclusive": 2557,
      "Ġfill": 2558,
      "Ġkurti": 2559,
      "Ġfiber": 2560,
      "!!": 2561,
      "ylon": 2562,
      "Ġlist": 2563,
      "Ġchair": 2564,
      "Ġche": 2565,
      "can": 2566,
      "Ġmesh": 2567,
      "hi": 2568,
      "Ġmask": 2569,
      "Ġcost": 2570,
      "Ġcrystal": 2571,
      "Ġtools": 2572,
      "Ġ200": 2573,
      "Ġhum": 2574,
      "Ġob": 2575,
      "Ġwomens": 2576,
      "Ġmodels": 2577,
      "Ġnecklace": 2578,
      "Ġwithin": 2579,
      "Ġpresent": 2580,
      "Ġcream": 2581,
      "ecess": 2582,
      "Ġbusiness": 2583,
      "ket": 2584,
      "Ġrelax": 2585,
      "pes": 2586,
      "Ġscrew": 2587,
      "Ġcirc": 2588,
      "Ġassem": 2589,
      "dimens": 2590,
      "Ġcutting": 2591,
      "Ġfeed": 2592,
      "ani": 2593,
      "brand": 2594,
      "Ġpull": 2595,
      "azz": 2596,
      "scratch": 2597,
      "Ġthree": 2598,
      "prec": 2599,
      "90": 2600,
      "Ġmil": 2601,
      "yal": 2602,
      "occasion": 2603,
      "Ġaccident": 2604,
      "Ġease": 2605,
      "full": 2606,
      "Ġmom": 2607,
      "Ġharm": 2608,
      "ipur": 2609,
      "Ġgener": 2610,
      "Ġchest": 2611,
      "Ġmi": 2612,
      "Ġtub": 2613,
      "Ġadhesive": 2614,
      "wom": 2615,
      "ina": 2616,
      "Ġcomput": 2617,
      "Ġmild": 2618,
      "Ġclip": 2619,
      "Ġmultiple": 2620,
      "Ġgarden": 2621,
      "oga": 2622,
      "Ġbecause": 2623,
      "Ġstraps": 2624,
      "Ġauth": 2625,
      "Ġfour": 2626,
      "Ġtrous": 2627,
      "ishing": 2628,
      "Ġhealthy": 2629,
      "Ġseller": 2630,
      "Ġexter": 2631,
      "Ġmens": 2632,
      "ivery": 2633,
      "que": 2634,
      "Ġdeliver": 2635,
      "Ġpal": 2636,
      "Ġouter": 2637,
      "ony": 2638,
      "Ġlab": 2639,
      "Ġxl": 2640,
      "encil": 2641,
      "bust": 2642,
      "pt": 2643,
      "Ġvoltage": 2644,
      "Ġchristmas": 2645,
      "Ġswim": 2646,
      "used": 2647,
      "Ġworry": 2648,
      "Ġworks": 2649,
      "Ġindoor": 2650,
      "Ġpvc": 2651,
      "new": 2652,
      "zz": 2653,
      "ustr": 2654,
      "Ġmanufactur": 2655,
      "ially": 2656,
      "pos": 2657,
      "iting": 2658,
      "cent": 2659,
      "Ġod": 2660,
      "Ġrecommended": 2661,
      "Ġgloss": 2662,
      "Ġhighest": 2663,
      "over": 2664,
      "Ġdrink": 2665,
      "Ġpressure": 2666,
      "Ġdirectly": 2667,
      "Ġimportant": 2668,
      "Ġtank": 2669,
      "Ġdenim": 2670,
      "Ġste": 2671,
      "Ġthose": 2672,
      "Ġtimes": 2673,
      "Ġ36": 2674,
      "piece": 2675,
      "osure": 2676,
      "Ġfavorite": 2677,
      "iture": 2678,
      "Ġweather": 2679,
      "26": 2680,
      "Ġstraight": 2681,
      "Ġrefer": 2682,
      "Ġlifetime": 2683,
      "ually": 2684,
      "ward": 2685,
      "Ġspray": 2686,
      "Ġgiving": 2687,
      "Ġbeach": 2688,
      "Ġseam": 2689,
      "Ġinterior": 2690,
      "Ġsub": 2691,
      "Ġsleek": 2692,
      "Ġprevents": 2693,
      "Ġinsp": 2694,
      "Ġdeep": 2695,
      "Ġfilter": 2696,
      "Ġdelic": 2697,
      "water": 2698,
      "Ġtoys": 2699,
      "Ġgolden": 2700,
      "stick": 2701,
      "Ġyet": 2702,
      "Ġvalent": 2703,
      "rent": 2704,
      "ya": 2705,
      "infor": 2706,
      "action": 2707,
      "Ġfestiv": 2708,
      "Ġcombination": 2709,
      "Ġwet": 2710,
      "ister": 2711,
      "ey": 2712,
      "Ġreturn": 2713,
      "ulation": 2714,
      "Ġstrip": 2715,
      "Ġoutfit": 2716,
      "28": 2717,
      "Ġluxury": 2718,
      "Ġtablet": 2719,
      "Ġalloy": 2720,
      "Ġmass": 2721,
      "Ġcorners": 2722,
      "utes": 2723,
      "ja": 2724,
      "Ġdy": 2725,
      "Ġfurniture": 2726,
      "Ġgor": 2727,
      "iversal": 2728,
      "Ġsecond": 2729,
      "Ġshower": 2730,
      "galaxy": 2731,
      "Ġpain": 2732,
      "Ġcy": 2733,
      "Ġbang": 2734,
      "Ġpend": 2735,
      "compatible": 2736,
      "Ġoverall": 2737,
      "Ġresolution": 2738,
      "Ġcollar": 2739,
      "izing": 2740,
      "Ġrack": 2741,
      "Ġpass": 2742,
      "34": 2743,
      "aim": 2744,
      "Ġfur": 2745,
      "crafted": 2746,
      "atta": 2747,
      "Ġflash": 2748,
      "Ġgraph": 2749,
      "Ġmemory": 2750,
      "isex": 2751,
      "duc": 2752,
      "Ġchange": 2753,
      "Ġfa": 2754,
      "Ġbumper": 2755,
      "Ġclothing": 2756,
      "Ġultimate": 2757,
      "Ġbrace": 2758,
      "Ġid": 2759,
      "Ġstart": 2760,
      "Ġbedsheet": 2761,
      "Ġthickness": 2762,
      "arn": 2763,
      "super": 2764,
      "cover": 2765,
      "Ġnut": 2766,
      "Ġfancy": 2767,
      "Ġpossible": 2768,
      "Ġpick": 2769,
      "'re": 2770,
      "ster": 2771,
      "Ġcertified": 2772,
      "Ġmanufacturing": 2773,
      "Ġnature": 2774,
      ")<": 2775,
      "Ġgel": 2776,
      "Ġseeds": 2777,
      "washer": 2778,
      "Ġworking": 2779,
      "vet": 2780,
      "Ġes": 2781,
      "ever": 2782,
      "Ġyoga": 2783,
      "Ġactiv": 2784,
      "Ġmight": 2785,
      "Ġmulticolor": 2786,
      "inyl": 2787,
      "Ġprotected": 2788,
      "Ġmanufactured": 2789,
      "ï¸": 2790,
      "Ġleggings": 2791,
      "uk": 2792,
      "42": 2793,
      "/><": 2794,
      "Ġfirm": 2795,
      ">,<": 2796,
      "idge": 2797,
      "Ġvel": 2798,
      "ills": 2799,
      "ï¸ı": 2800,
      "Ġbook": 2801,
      "Ġconnector": 2802,
      "ingred": 2803,
      "Ġnylon": 2804,
      "Ġreinfor": 2805,
      "Ġsport": 2806,
      "Ġbeautifully": 2807,
      "Ġrain": 2808,
      "Ġtear": 2809,
      "Ġabove": 2810,
      "Ġexerc": 2811,
      "antity": 2812,
      "Ġfinished": 2813,
      "Ġanywhere": 2814,
      "Ġbub": 2815,
      ".&": 2816,
      "99": 2817,
      "Ġpoint": 2818,
      "Ġpowerful": 2819,
      "Ġrefr": 2820,
      "Ġrose": 2821,
      "Ġaccor": 2822,
      "aturing": 2823,
      "del": 2824,
      "Ġlonger": 2825,
      "lim": 2826,
      "Ġfac": 2827,
      "Ġhu": 2828,
      "ny": 2829,
      "Ġmarket": 2830,
      "arch": 2831,
      "Ġinstruction": 2832,
      "Ġ32": 2833,
      "Ġaccording": 2834,
      "gb": 2835,
      "Ġdifference": 2836,
      "Ġcontrols": 2837,
      "Ġ=": 2838,
      "ecessary": 2839,
      "usable": 2840,
      "Ġpadded": 2841,
      "Ġrep": 2842,
      "Ġveget": 2843,
      "stitch": 2844,
      "Ġappli": 2845,
      "oven": 2846,
      "Ġsandals": 2847,
      "Ġupper": 2848,
      "Ġresults": 2849,
      "Ġaccidental": 2850,
      "Ġkg": 2851,
      "Ġdut": 2852,
      "Ġprofile": 2853,
      "Ġmode": 2854,
      "Ġrad": 2855,
      "pur": 2856,
      "ollow": 2857,
      "Ġbene": 2858,
      "Ġdeterg": 2859,
      "Ġseparately": 2860,
      "Ġconditions": 2861,
      "Ġclock": 2862,
      "go": 2863,
      ">-": 2864,
      "Ġther": 2865,
      "Ġever": 2866,
      "Ġpurchase": 2867,
      "type": 2868,
      "zy": 2869,
      "Ġknow": 2870,
      "Ġlining": 2871,
      "Ġparties": 2872,
      "smart": 2873,
      "Ġgam": 2874,
      "ef": 2875,
      "Ġ'": 2876,
      "Ġoption": 2877,
      "Ġauto": 2878,
      "ðŁĴ": 2879,
      "Ġonce": 2880,
      "Ġmeter": 2881,
      "Ġloose": 2882,
      "Ġmold": 2883,
      "44": 2884,
      "Ġcomputer": 2885,
      "rop": 2886,
      "xx": 2887,
      "Ġray": 2888,
      "Ġbuild": 2889,
      "Ġ::": 2890,
      "itter": 2891,
      "Ġstitched": 2892,
      "Ġeffic": 2893,
      "ises": 2894,
      "Ġclassy": 2895,
      "Ġdelivery": 2896,
      "Ġpeel": 2897,
      "oud": 2898,
      "Ġmakeup": 2899,
      "39": 2900,
      "ump": 2901,
      "afe": 2902,
      "gu": 2903,
      "dis": 2904,
      "Ġmain": 2905,
      "Ġgsm": 2906,
      "ether": 2907,
      "Ġchain": 2908,
      "Ġreduc": 2909,
      "Ġdata": 2910,
      "unction": 2911,
      "Ġsolution": 2912,
      "Ġvolume": 2913,
      "off": 2914,
      "Ġtypes": 2915,
      "Ġâ": 2916,
      "formation": 2917,
      "Ġcou": 2918,
      "Ġpictures": 2919,
      "Ġhardness": 2920,
      "len": 2921,
      "Ġlid": 2922,
      "27": 2923,
      "Ġproject": 2924,
      "lass": 2925,
      "Ġold": 2926,
      ";&": 2927,
      "Ġ17": 2928,
      "Ġfix": 2929,
      "gift": 2930,
      "inner": 2931,
      "cot": 2932,
      "great": 2933,
      "Ġdining": 2934,
      "cd": 2935,
      "Ġoutput": 2936,
      "Ġrust": 2937,
      "Ġbackpack": 2938,
      "ze": 2939,
      "Ġpresents": 2940,
      "Ġengine": 2941,
      "Ġplan": 2942,
      "Ġreinforced": 2943,
      "acy": 2944,
      "Ġkne": 2945,
      "Ġmatching": 2946,
      "Ġknown": 2947,
      "Ġ80": 2948,
      "Ġsofa": 2949,
      "Ġeyes": 2950,
      "Ġvalentine": 2951,
      "ces": 2952,
      "women": 2953,
      "Ġaddition": 2954,
      "met": 2955,
      "Ġjo": 2956,
      "Ġdimension": 2957,
      "Â®": 2958,
      "Ġbracelet": 2959,
      "Ġglasses": 2960,
      "Ġcovering": 2961,
      "Ġoz": 2962,
      "rylic": 2963,
      "bag": 2964,
      "Ġeu": 2965,
      "Ġgemstone": 2966,
      "cont": 2967,
      "Ġev": 2968,
      "ball": 2969,
      "Ġmanufacturer": 2970,
      "oop": 2971,
      "Ġver": 2972,
      "Ġdiy": 2973,
      "Ġpract": 2974,
      "Ġtray": 2975,
      "Ġinnov": 2976,
      "war": 2977,
      "ined": 2978,
      "Ġ300": 2979,
      "âĢĶ": 2980,
      "ably": 2981,
      "Ġliquid": 2982,
      "closure": 2983,
      "Ġmugs": 2984,
      "Ġposter": 2985,
      "Ġexact": 2986,
      "Ġstar": 2987,
      "Ġvinyl": 2988,
      "Ġtape": 2989,
      "Ġmother": 2990,
      "Ġheadphones": 2991,
      "Ġsurfaces": 2992,
      "estyle": 2993,
      "Ġaw": 2994,
      "Ġank": 2995,
      "Ġq": 2996,
      "Ġingred": 2997,
      "multi": 2998,
      "oured": 2999,
      "wood": 3000,
      "Ġkick": 3001,
      "Ġandroid": 3002,
      "Ġperf": 3003,
      "33": 3004,
      "Ġsatin": 3005,
      "Ġdevel": 3006,
      "Ġunisex": 3007,
      "Ġfeaturing": 3008,
      "Ġintern": 3009,
      "::": 3010,
      "Ġaluminum": 3011,
      "time": 3012,
      "bed": 3013,
      "Ġfact": 3014,
      "Ġfig": 3015,
      "Ġaccurate": 3016,
      "Ġrun": 3017,
      "Ġtoget": 3018,
      "aged": 3019,
      "squ": 3020,
      "Ġuk": 3021,
      "ince": 3022,
      "Ġplate": 3023,
      "Ġfan": 3024,
      "cotton": 3025,
      "atile": 3026,
      "Ġly": 3027,
      "Ġinstant": 3028,
      "ists": 3029,
      "ivid": 3030,
      "Ġtumble": 3031,
      "ini": 3032,
      "Ġtogether": 3033,
      "jama": 3034,
      "hz": 3035,
      "Ġcand": 3036,
      "Ġspeakers": 3037,
      "Ġfestive": 3038,
      "Ġuses": 3039,
      "grade": 3040,
      "Ġ38": 3041,
      "lies": 3042,
      "Ġpin": 3043,
      "includ": 3044,
      "ï¼": 3045,
      "Ġvac": 3046,
      "iner": 3047,
      "Ġkeyboard": 3048,
      "\"(": 3049,
      "rome": 3050,
      "cra": 3051,
      "Ġtransfer": 3052,
      "ires": 3053,
      "box": 3054,
      "Ġbowl": 3055,
      "Ġdevelop": 3056,
      "ited": 3057,
      "Ġreflect": 3058,
      "amin": 3059,
      "ients": 3060,
      "Ġhar": 3061,
      "ga": 3062,
      "Ġpencil": 3063,
      "Ġdupatta": 3064,
      "Ġglo": 3065,
      "rub": 3066,
      "Ġorange": 3067,
      "intage": 3068,
      "Ġ22": 3069,
      "paper": 3070,
      "Ġbor": 3071,
      "âľħ": 3072,
      "45": 3073,
      "Ġinv": 3074,
      "Ġtshirt": 3075,
      "Ġnex": 3076,
      "Ġorganic": 3077,
      "Ġ)": 3078,
      "Ġhappy": 3079,
      "ering": 3080,
      "entic": 3081,
      "waist": 3082,
      "sil": 3083,
      "Ġlog": 3084,
      "Ġtv": 3085,
      "designed": 3086,
      "ared": 3087,
      "Ġfinest": 3088,
      "claim": 3089,
      "een": 3090,
      "stitched": 3091,
      "Ġrequire": 3092,
      "Ġangle": 3093,
      "outh": 3094,
      "non": 3095,
      "Ġcat": 3096,
      "31": 3097,
      "Ġtotal": 3098,
      "Ġgame": 3099,
      "Ġdishwasher": 3100,
      "Ġpush": 3101,
      "____": 3102,
      "fashion": 3103,
      "Ġladies": 3104,
      "Ġexpl": 3105,
      "Ġheels": 3106,
      "tress": 3107,
      "Ġvariation": 3108,
      "Ġseamless": 3109,
      "Ġrate": 3110,
      "Ġreusable": 3111,
      "Ġwee": 3112,
      "Ġrear": 3113,
      "veless": 3114,
      "Ġsatisfaction": 3115,
      "quis": 3116,
      "lif": 3117,
      "brid": 3118,
      "neak": 3119,
      "emi": 3120,
      "Ġdetergent": 3121,
      "Ġprovided": 3122,
      "Ġwonder": 3123,
      "Ġacrylic": 3124,
      "reg": 3125,
      "Ġmtr": 3126,
      "Ġcompatibility": 3127,
      "ikk": 3128,
      "Ġsold": 3129,
      "Ġstains": 3130,
      "Ġinte": 3131,
      "Ġnice": 3132,
      "Ġattention": 3133,
      "Ġproblem": 3134,
      "Ġtrim": 3135,
      "Ġfragr": 3136,
      "ened": 3137,
      "styl": 3138,
      "claimer": 3139,
      "Ġonline": 3140,
      "inst": 3141,
      "Ġneeded": 3142,
      "Ġpendant": 3143,
      "Ġcarbon": 3144,
      "Ġroyal": 3145,
      "Ġtry": 3146,
      "37": 3147,
      "arity": 3148,
      "Ġshipping": 3149,
      "55": 3150,
      "Ġadded": 3151,
      "rowave": 3152,
      "Ġminutes": 3153,
      "Ġocc": 3154,
      "ford": 3155,
      "unglass": 3156,
      "aur": 3157,
      "di": 3158,
      "200": 3159,
      "Ġpear": 3160,
      "ogg": 3161,
      "Ġcarefully": 3162,
      "Ġcontainer": 3163,
      "toxic": 3164,
      "Ġuniversal": 3165,
      "Ġmattress": 3166,
      "Ġkid": 3167,
      "Ġmicrof": 3168,
      "lebr": 3169,
      "Ġtrousers": 3170,
      "like": 3171,
      "kg": 3172,
      "oli": 3173,
      "Ġfem": 3174,
      "onom": 3175,
      "Ġluxurious": 3176,
      "aster": 3177,
      "Ġ28": 3178,
      "Ġsneak": 3179,
      "Ġelectron": 3180,
      "err": 3181,
      "Ġmac": 3182,
      "Ġsexy": 3183,
      "Ġdrive": 3184,
      "Ġsupp": 3185,
      "ala": 3186,
      "Ġbased": 3187,
      "thers": 3188,
      "Ġsheets": 3189,
      "oot": 3190,
      "Ġfinishing": 3191,
      "Ġrealme": 3192,
      "Ġstunning": 3193,
      "Ġbik": 3194,
      "Ġshopping": 3195,
      "ieve": 3196,
      "Ġipad": 3197,
      "Ġsquare": 3198,
      "Ġadding": 3199,
      "Ġla": 3200,
      "Ġstop": 3201,
      "Ġknee": 3202,
      "Ġsubl": 3203,
      "Ġembroidery": 3204,
      "amb": 3205,
      "Ġmah": 3206,
      "Ġspl": 3207,
      "Ġdisp": 3208,
      "Ġcorner": 3209,
      "Ġposition": 3210,
      "item": 3211,
      "comfortable": 3212,
      "Ġsunglass": 3213,
      "Ġconsum": 3214,
      "Ġspring": 3215,
      "pad": 3216,
      "Ġsets": 3217,
      "ram": 3218,
      "Ġheel": 3219,
      "Ġbeads": 3220,
      "porary": 3221,
      "Ġbulk": 3222,
      "comple": 3223,
      "Ġlov": 3224,
      "Ġcash": 3225,
      "ensive": 3226,
      "Ġmov": 3227,
      "charge": 3228,
      "Ġreason": 3229,
      "Ġappeal": 3230,
      "Ġinformation": 3231,
      "ury": 3232,
      "Ġchemicals": 3233,
      "pol": 3234,
      "aser": 3235,
      "Ġwipe": 3236,
      "Ġpurple": 3237,
      "Ġvintage": 3238,
      "Ġphotographic": 3239,
      "Ġcore": 3240,
      "Ġadvanced": 3241,
      "imation": 3242,
      "Ġbuckle": 3243,
      "sing": 3244,
      "Ġmeet": 3245,
      "Ġcups": 3246,
      "Ġdc": 3247,
      "oz": 3248,
      "Ġsit": 3249,
      "Ġshine": 3250,
      "Ġide": 3251,
      "cer": 3252,
      "Ġsupply": 3253,
      "Â°": 3254,
      "lasting": 3255,
      "Ġcelebr": 3256,
      "Ġ500": 3257,
      "Ġsearch": 3258,
      "Ġcartoon": 3259,
      "table": 3260,
      "ify": 3261,
      "aking": 3262,
      "ensity": 3263,
      "Ġblank": 3264,
      "Ġadult": 3265,
      "cut": 3266,
      "Ġkindly": 3267,
      "Ġbatteries": 3268,
      "Ġorganizer": 3269,
      "Ġfitness": 3270,
      "quisite": 3271,
      "Ġmy": 3272,
      "elling": 3273,
      "Ġclarity": 3274,
      "Ġtaste": 3275,
      "ergonom": 3276,
      "Ġpearl": 3277,
      "Ġ42": 3278,
      "Ġstitching": 3279,
      "Ġsnap": 3280,
      "Ġentire": 3281,
      "designer": 3282,
      "ief": 3283,
      "Ã¢": 3284,
      "Ġhole": 3285,
      "ew": 3286,
      "Ġmouse": 3287,
      "Ġtested": 3288,
      "Ġviewing": 3289,
      "Ġfabrics": 3290,
      "ificial": 3291,
      "about": 3292,
      "Ġslots": 3293,
      "rect": 3294,
      "Ġquickly": 3295,
      "ifically": 3296,
      "Ġoutside": 3297,
      "Ġstretchable": 3298,
      "Ġprotecting": 3299,
      "Ġdamages": 3300,
      "Ġconf": 3301,
      "bly": 3302,
      "Ġcoat": 3303,
      "Ġsend": 3304,
      "Ġsleeveless": 3305,
      "Ġtoe": 3306,
      "ann": 3307,
      "Ġca": 3308,
      "Ġcab": 3309,
      "Ġsublimation": 3310,
      "Ġbear": 3311,
      "Ġfollow": 3312,
      "Ġ:</": 3313,
      "good": 3314,
      "ases": 3315,
      "gar": 3316,
      "Ġdoll": 3317,
      "iding": 3318,
      "green": 3319,
      "Ġversatile": 3320,
      "Ġheadset": 3321,
      "power": 3322,
      "Ġtur": 3323,
      "Ġwas": 3324,
      "Ġlim": 3325,
      "fy": 3326,
      "unique": 3327,
      "cus": 3328,
      "mb": 3329,
      "Ġgetting": 3330,
      "Ġlycra": 3331,
      "Ġduty": 3332,
      "Ġhybrid": 3333,
      "pink": 3334,
      "ards": 3335,
      "Ġpy": 3336,
      "Ġcurrent": 3337,
      "Ġant": 3338,
      "Ġcustomized": 3339,
      "Ġshr": 3340,
      "Ġadditional": 3341,
      "bers": 3342,
      "Ġabsol": 3343,
      "ased": 3344,
      "hold": 3345,
      "Ġplants": 3346,
      "Ġwrist": 3347,
      "mon": 3348,
      "ism": 3349,
      "Ġwhether": 3350,
      "Ġquantity": 3351,
      "Ġimprove": 3352,
      "Ġreach": 3353,
      "ige": 3354,
      "Ġleaves": 3355,
      "ula": 3356,
      "Ġrecor": 3357,
      "Ġlcd": 3358,
      "Ġremovable": 3359,
      "multicol": 3360,
      "Ġbasket": 3361,
      "Ġauthentic": 3362,
      "---": 3363,
      "hod": 3364,
      "Ġshelf": 3365,
      "Ġleave": 3366,
      "Ġpersonality": 3367,
      "ension": 3368,
      "cur": 3369,
      "Ġmovement": 3370,
      "import": 3371,
      "Ġtoday": 3372,
      "Ġdem": 3373,
      "Ġelegance": 3374,
      "Ġill": 3375,
      "Ġlead": 3376,
      "Ġvit": 3377,
      "Ġ26": 3378,
      ">â": 3379,
      "Ġdelicate": 3380,
      "Ġrayon": 3381,
      "Ġchrome": 3382,
      "Ġinternational": 3383,
      "Ġkinds": 3384,
      "Ġsurely": 3385,
      "Ġclick": 3386,
      "ought": 3387,
      "ished": 3388,
      "Ġcms": 3389,
      "Ġsemi": 3390,
      "Ġdefinition": 3391,
      "Ġcontin": 3392,
      "Ġballoon": 3393,
      "Ġmonitors": 3394,
      "Ġkeys": 3395,
      "####": 3396,
      "esome": 3397,
      "Ġhere": 3398,
      "Ġhandcrafted": 3399,
      "onge": 3400,
      "aree": 3401,
      "Ġfib": 3402,
      "Ġbad": 3403,
      "Ġbio": 3404,
      "Ġfro": 3405,
      "Ġ35": 3406,
      "Ġexercise": 3407,
      "Ġcooking": 3408,
      "description": 3409,
      "Ġstandards": 3410,
      "Ġking": 3411,
      "oors": 3412,
      "eed": 3413,
      "Ġingredients": 3414,
      "obic": 3415,
      "Ġgloves": 3416,
      "Ġholes": 3417,
      "Ġcompr": 3418,
      "Ġtie": 3419,
      "ulated": 3420,
      "Ġhence": 3421,
      "Ġwindows": 3422,
      "ream": 3423,
      "Ġtail": 3424,
      "printed": 3425,
      "Ġstyles": 3426,
      "Ġquestions": 3427,
      "Ġartificial": 3428,
      "Ġrom": 3429,
      "Ġwhole": 3430,
      "sw": 3431,
      "small": 3432,
      ")</": 3433,
      "Ġstickers": 3434,
      "Ġwalking": 3435,
      "stylish": 3436,
      "Ġsensor": 3437,
      "Ġremoving": 3438,
      "Ġmicrofiber": 3439,
      "Ġhon": 3440,
      "Ġrough": 3441,
      "Ġslippers": 3442,
      "Ã©": 3443,
      "Ġusa": 3444,
      "Ġchip": 3445,
      "ipurpose": 3446,
      "Ġrele": 3447,
      "novo": 3448,
      "other": 3449,
      "pec": 3450,
      "Ġtrends": 3451,
      "Ġfat": 3452,
      ")]": 3453,
      "Ġprime": 3454,
      "slim": 3455,
      "emporary": 3456,
      "complete": 3457,
      "ox": 3458,
      "Ġcolle": 3459,
      "21": 3460,
      "Ġthanks": 3461,
      "my": 3462,
      "Ġuser": 3463,
      "Ġcreative": 3464,
      "itivity": 3465,
      "Ġmats": 3466,
      "Ġsince": 3467,
      "Ġfew": 3468,
      "Ġcreation": 3469,
      "Ġcrack": 3470,
      "gin": 3471,
      "Ġremoval": 3472,
      "ikkme": 3473,
      "Ġslot": 3474,
      "Ġsuited": 3475,
      "break": 3476,
      "hard": 3477,
      "bing": 3478,
      "ising": 3479,
      "Ġtube": 3480,
      "Ġactivities": 3481,
      "iva": 3482,
      "Ġvelvet": 3483,
      "Ġ48": 3484,
      "Ġcord": 3485,
      "standing": 3486,
      "geous": 3487,
      "hol": 3488,
      "angle": 3489,
      "Ġshockproof": 3490,
      "Ġleaving": 3491,
      "Ġcompartment": 3492,
      "iny": 3493,
      "hel": 3494,
      "orable": 3495,
      "29": 3496,
      "Ġdefect": 3497,
      "generic": 3498,
      "Ġlovely": 3499,
      "azzo": 3500,
      "Ġspecifically": 3501,
      "ley": 3502,
      "Ġmessage": 3503,
      "estern": 3504,
      "custom": 3505,
      "Ġuseful": 3506,
      "Ġopening": 3507,
      "bles": 3508,
      "Ġgrace": 3509,
      "!</": 3510,
      "ization": 3511,
      "Ġsunglasses": 3512,
      "Ġresid": 3513,
      "Ġexce": 3514,
      "Ġobject": 3515,
      "Ġameric": 3516,
      "Ġwonderful": 3517,
      "illed": 3518,
      "Ġmould": 3519,
      "Ġbelow": 3520,
      "Ġembroidered": 3521,
      "Ġcoated": 3522,
      "pecially": 3523,
      "Ġeffective": 3524,
      "tre": 3525,
      "....": 3526,
      "Ġtrue": 3527,
      "face": 3528,
      "Ġice": 3529,
      "Ġsom": 3530,
      "Ġgown": 3531,
      "Ġcross": 3532,
      "Ġrock": 3533,
      "Ġju": 3534,
      "Ġeasier": 3535,
      "Ġtip": 3536,
      "Ġankle": 3537,
      "iday": 3538,
      "Ġpartic": 3539,
      "Ġbud": 3540,
      "Ġsave": 3541,
      "ties": 3542,
      "ands": 3543,
      "Ġheadphone": 3544,
      "Ġtun": 3545,
      "Ġwallpaper": 3546,
      "Ġworkout": 3547,
      "Ġcosm": 3548,
      "lus": 3549,
      "Ġfurther": 3550,
      "andex": 3551,
      "Ġflowers": 3552,
      "Ġtowel": 3553,
      "Ġoperation": 3554,
      "Ġmeans": 3555,
      "ĠâĢĶ": 3556,
      "Ġleft": 3557,
      "Ġexternal": 3558,
      "Ġdiw": 3559,
      "mat": 3560,
      "Ġ45": 3561,
      "ided": 3562,
      "casual": 3563,
      "inc": 3564,
      "icable": 3565,
      "install": 3566,
      "alled": 3567,
      "Ġalmost": 3568,
      "48": 3569,
      "iff": 3570,
      "add": 3571,
      "ara": 3572,
      "Ġpump": 3573,
      "Ġminimal": 3574,
      "augh": 3575,
      "Ġcraftsm": 3576,
      "Ġcovered": 3577,
      "otes": 3578,
      "Ġeffort": 3579,
      "wide": 3580,
      "Ġmicrowave": 3581,
      "Ġmeters": 3582,
      "asing": 3583,
      "Ġexte": 3584,
      "Ġrod": 3585,
      "ka": 3586,
      "Ġspecifications": 3587,
      "Ġfire": 3588,
      "Ġawesome": 3589,
      "iking": 3590,
      "Ġhip": 3591,
      "Ġenter": 3592,
      "Ġshatter": 3593,
      "Ġhall": 3594,
      "Ġsources": 3595,
      "Ġexquisite": 3596,
      "Ġremoved": 3597,
      "Ġminor": 3598,
      "Ġpopular": 3599,
      "Ġcontemporary": 3600,
      "ously": 3601,
      "ider": 3602,
      "ugged": 3603,
      "Ġclose": 3604,
      "Ġreally": 3605,
      "Ġupto": 3606,
      "Ġloc": 3607,
      "Ġ44": 3608,
      "Ġthings": 3609,
      "Ġwool": 3610,
      "appro": 3611,
      "inder": 3612,
      "ken": 3613,
      "Ġcorrect": 3614,
      "Ġgorgeous": 3615,
      "Ġsneakers": 3616,
      "ÂłĠ": 3617,
      "Ġwoven": 3618,
      "sha": 3619,
      "Ġcake": 3620,
      "Ġrib": 3621,
      "Ġcontr": 3622,
      "fidaa": 3623,
      "Ġblade": 3624,
      "iles": 3625,
      "Ġreplace": 3626,
      "Ġglossy": 3627,
      "Ġflav": 3628,
      "Ġseal": 3629,
      "Ġrug": 3630,
      "atching": 3631,
      "Ġcabin": 3632,
      "Ġcub": 3633,
      "ĠâĢľ": 3634,
      "ues": 3635,
      "lay": 3636,
      "Ġbreakage": 3637,
      "Ġcenter": 3638,
      "eless": 3639,
      "Ġchang": 3640,
      "Ġeffectively": 3641,
      "mes": 3642,
      "fidence": 3643,
      "Ġespecially": 3644,
      "Ġnoise": 3645,
      "65": 3646,
      "Ġ#": 3647,
      "Ġstatement": 3648,
      "Ġ180": 3649,
      "Ġvest": 3650,
      "Ġabsorption": 3651,
      "Ġindivid": 3652,
      "beaut": 3653,
      "Ġergonom": 3654,
      "Ġbit": 3655,
      "Ġspark": 3656,
      "Ġcarrying": 3657,
      "dust": 3658,
      "Ġfragrance": 3659,
      "Ġpersonalized": 3660,
      "Ġsalwar": 3661,
      "iate": 3662,
      "head": 3663,
      "Ġbur": 3664,
      "Ġhis": 3665,
      "Ġprotectors": 3666,
      "Ġperfume": 3667,
      "Ġlogo": 3668,
      "Ġproperties": 3669,
      "enic": 3670,
      "ultra": 3671,
      "Ġfeels": 3672,
      "dimensions": 3673,
      "Ġmassage": 3674,
      "23": 3675,
      "Ġlower": 3676,
      "Ġ--": 3677,
      ">ðŁ": 3678,
      "Ġmoto": 3679,
      "hy": 3680,
      "keep": 3681,
      "Ġhonor": 3682,
      "Ġster": 3683,
      "46": 3684,
      "chan": 3685,
      "Ġwife": 3686,
      "Ġincrease": 3687,
      "ola": 3688,
      "Ġrev": 3689,
      "Ġfunctional": 3690,
      "Ġban": 3691,
      "Ġwhy": 3692,
      "Ġstock": 3693,
      "Ġgets": 3694,
      "ground": 3695,
      "Ġpads": 3696,
      "Ġaction": 3697,
      "Ġprecious": 3698,
      "Ġrefresh": 3699,
      "Ġrec": 3700,
      "ope": 3701,
      "Ġsunlight": 3702,
      "Ġpacked": 3703,
      "Ġgear": 3704,
      "Ġach": 3705,
      "atically": 3706,
      "Ġcompany": 3707,
      "Ġquestion": 3708,
      "isely": 3709,
      "Ġattached": 3710,
      "part": 3711,
      "abs": 3712,
      "Ġacross": 3713,
      "girl": 3714,
      "uum": 3715,
      "saree": 3716,
      "Ġlenovo": 3717,
      "Ġensuring": 3718,
      "ilar": 3719,
      "Ġwoman": 3720,
      "akes": 3721,
      "Ġsupports": 3722,
      "Ġcorros": 3723,
      "Ġhor": 3724,
      "Ġlift": 3725,
      "cles": 3726,
      "Ġhandbag": 3727,
      "Ġfestival": 3728,
      "Ġpatterns": 3729,
      "Ġspir": 3730,
      "Ġtone": 3731,
      "Ġbecome": 3732,
      "Ġdoesn": 3733,
      "ero": 3734,
      "Ġ27": 3735,
      "Ġtheme": 3736,
      "gi": 3737,
      "Ġtraining": 3738,
      "awe": 3739,
      "Ġnightwear": 3740,
      "Ġgrams": 3741,
      "Ġtap": 3742,
      "Ġassembly": 3743,
      "Ġenhances": 3744,
      "itted": 3745,
      "ection": 3746,
      "Ġcars": 3747,
      "Ġactive": 3748,
      "grad": 3749,
      "orted": 3750,
      "Ġaqu": 3751,
      "Ġtransm": 3752,
      "net": 3753,
      "machine": 3754,
      "Ġcosmetic": 3755,
      "ana": 3756,
      "Ġafford": 3757,
      "Ġefficient": 3758,
      "Ġexclusively": 3759,
      "sup": 3760,
      "umb": 3761,
      "Ġflats": 3762,
      "Ġstability": 3763,
      "Ġevening": 3764,
      "Ġextreme": 3765,
      "Ġxxl": 3766,
      "illa": 3767,
      "mic": 3768,
      "Ġnavy": 3769,
      "approx": 3770,
      "Ġask": 3771,
      "Ġconvenience": 3772,
      "Ġ34": 3773,
      "Ġmoistur": 3774,
      "Ġprinter": 3775,
      "Ġsweet": 3776,
      "xxl": 3777,
      "Ġbenefits": 3778,
      "Ġconfidence": 3779,
      "Ġsource": 3780,
      "alk": 3781,
      "eplus": 3782,
      "Ġhem": 3783,
      "Ġcult": 3784,
      "Ġox": 3785,
      "Ġpay": 3786,
      "Ġcharm": 3787,
      "Ġsuits": 3788,
      "itation": 3789,
      "Ġdad": 3790,
      "ano": 3791,
      "Ġgirlfriend": 3792,
      "Ġsoph": 3793,
      "Ġstable": 3794,
      "Ġground": 3795,
      "Ġwel": 3796,
      "oom": 3797,
      "ories": 3798,
      "Ġoneplus": 3799,
      "Ġpanty": 3800,
      "Ġmouth": 3801,
      "Ġdia": 3802,
      "Ġmethod": 3803,
      "Ġnotebook": 3804,
      "orget": 3805,
      "Ġproblems": 3806,
      "Ġspandex": 3807,
      "tty": 3808,
      "Ġland": 3809,
      "Ġcomfy": 3810,
      ".,âľĶ": 3811,
      "Ġpacking": 3812,
      "Ġeffects": 3813,
      "orgette": 3814,
      "Ġsensitivity": 3815,
      "dry": 3816,
      "Ġstuff": 3817,
      "Ġcolored": 3818,
      "Ġbubble": 3819,
      "Ġmilk": 3820,
      "mark": 3821,
      "Ġfeedback": 3822,
      "function": 3823,
      "Ġpikkme": 3824,
      "Ġtshirts": 3825,
      "Ġrat": 3826,
      "95": 3827,
      "Ġdistance": 3828,
      "Ġwaistband": 3829,
      "Ġcompos": 3830,
      "Ġsugg": 3831,
      "awei": 3832,
      "Ġpreser": 3833,
      "Ġsuggest": 3834,
      "Ġcamping": 3835,
      "Ġarom": 3836,
      "iger": 3837,
      "Ġphotography": 3838,
      "printfidaa": 3839,
      "Ġlets": 3840,
      "Ġautomatically": 3841,
      "Ġpaintings": 3842,
      "Ġjar": 3843,
      "ito": 3844,
      "Ġstate": 3845,
      "Ġprefer": 3846,
      "Ġfab": 3847,
      "Ġhandles": 3848,
      "Ġdriving": 3849,
      "body": 3850,
      "Ġinput": 3851,
      "Ġplaying": 3852,
      "Ġcouple": 3853,
      "breakable": 3854,
      "Ġglue": 3855,
      "finger": 3856,
      "Ġlaser": 3857,
      "heng": 3858,
      "come": 3859,
      "Ġbottles": 3860,
      "Ġrings": 3861,
      "Ġinnovative": 3862,
      "Ġguaranteed": 3863,
      "yellow": 3864,
      "Ġvacuum": 3865,
      "Ġproduc": 3866,
      "Ġexpress": 3867,
      "Ã©cor": 3868,
      "Ġheads": 3869,
      "Ġinstalled": 3870,
      "Ġwashed": 3871,
      "bal": 3872,
      "Ġconnected": 3873,
      "Ġprecisely": 3874,
      "Ġwalls": 3875,
      "Ġunstitched": 3876,
      "cap": 3877,
      "Ġpatch": 3878,
      "screen": 3879,
      "Ġsimilar": 3880,
      "Ġflexibility": 3881,
      "Ġfitted": 3882,
      "elves": 3883,
      "ĠâĢĶâĢĶ": 3884,
      "ently": 3885,
      "nam": 3886,
      "Ġborder": 3887,
      "Ġpalazzo": 3888,
      "arg": 3889,
      "Ġmarble": 3890,
      "'ll": 3891,
      "ĠdÃ©cor": 3892,
      "ustry": 3893,
      "Ġburn": 3894,
      "unk": 3895,
      "Ġtablets": 3896,
      "shop": 3897,
      "Ġinfl": 3898,
      "Ġbutter": 3899,
      "1000": 3900,
      "Ġeverything": 3901,
      "Ġapplied": 3902,
      "Ġdiwali": 3903,
      "Ġcomplim": 3904,
      "rs": 3905,
      "specification": 3906,
      "poly": 3907,
      "ereo": 3908,
      "Ġgraphic": 3909,
      "Ġfavour": 3910,
      "Ġdrill": 3911,
      "Ġwestern": 3912,
      "Ġsupplies": 3913,
      "Ġic": 3914,
      "gold": 3915,
      "zzle": 3916,
      "Ġfalls": 3917,
      "lock": 3918,
      "Ġbpa": 3919,
      "Ġspoon": 3920,
      "due": 3921,
      "Ġopenings": 3922,
      "urity": 3923,
      "Ġholiday": 3924,
      "Ġscale": 3925,
      "Ġwatching": 3926,
      "Ġfound": 3927,
      "Ġgrou": 3928,
      "Ġsecurely": 3929,
      "Ġbrief": 3930,
      "Ġplacing": 3931,
      "pres": 3932,
      "built": 3933,
      "string": 3934,
      "Ġserving": 3935,
      "Ġinks": 3936,
      "Ġfish": 3937,
      "ences": 3938,
      "ring": 3939,
      "Ġmagic": 3940,
      "Ġ%": 3941,
      "Ġwheels": 3942,
      "Ġsignal": 3943,
      "Ġabsorbent": 3944,
      "Ġnext": 3945,
      "Ġlite": 3946,
      "Ġrepair": 3947,
      ",,": 3948,
      "Ġstill": 3949,
      "Ġmechan": 3950,
      "Ġgently": 3951,
      "Ġot": 3952,
      "Ġdash": 3953,
      "Ġrugged": 3954,
      "ss": 3955,
      "Ġhom": 3956,
      "Ġitself": 3957,
      "Ġextract": 3958,
      "Ġvent": 3959,
      "Ġfruits": 3960,
      "ingerie": 3961,
      "Ġoils": 3962,
      "more": 3963,
      "Ġable": 3964,
      "Ġgeorgette": 3965,
      "Ġsaving": 3966,
      "medium": 3967,
      "Ġreliable": 3968,
      "Ġtree": 3969,
      "Ġframes": 3970,
      "Ġshocks": 3971,
      "Ġfunctionality": 3972,
      "Ġequipment": 3973,
      "ething": 3974,
      "Ġscrub": 3975,
      "henga": 3976,
      "Ġyes": 3977,
      "wing": 3978,
      "Ġ46": 3979,
      "Ġthroughout": 3980,
      "Ġoutfits": 3981,
      "regular": 3982,
      "Ġwalk": 3983,
      "icy": 3984,
      "Ġstring": 3985,
      "oph": 3986,
      "Ġshaped": 3987,
      "Ġtodd": 3988,
      "Ġ?": 3989,
      "Ġà¤": 3990,
      "uv": 3991,
      "Ġtrip": 3992,
      "Ġcables": 3993,
      "Ġoptions": 3994,
      "Ġmale": 3995,
      "Ġwax": 3996,
      "Ġfoldable": 3997,
      "Ġresidue": 3998,
      "Ġtakes": 3999,
      "Ġlips": 4000,
      "ils": 4001,
      "Ġdh": 4002,
      "Ġload": 4003,
      "Ġsensitive": 4004,
      "Ġaffordable": 4005,
      "Ġstyling": 4006,
      "ude": 4007,
      "Ġindustry": 4008,
      "sim": 4009,
      "Ġmultipurpose": 4010,
      "Ġleak": 4011,
      "Ġplaced": 4012,
      "Ġvir": 4013,
      "Ġelectronic": 4014,
      "ifier": 4015,
      "rak": 4016,
      "iation": 4017,
      "Ġbrother": 4018,
      "Ġhuawei": 4019,
      "dimension": 4020,
      "adjust": 4021,
      "Ġplush": 4022,
      "Ġord": 4023,
      "Ġstereo": 4024,
      "umps": 4025,
      "Ġperman": 4026,
      "Ġrak": 4027,
      "Ġegg": 4028,
      "Ġpractical": 4029,
      "Ġlifestyle": 4030,
      "iling": 4031,
      "Ġstruct": 4032,
      "kia": 4033,
      "men": 4034,
      "Ġserve": 4035,
      "Ġcharacter": 4036,
      "Ġcleaner": 4037,
      "Ġtext": 4038,
      "plastic": 4039,
      "Ġcause": 4040,
      "Ġearphone": 4041,
      "Ġsurround": 4042,
      "Ġthus": 4043,
      "Ġmel": 4044,
      "Ġcrow": 4045,
      "Ġindic": 4046,
      "Ġ70": 4047,
      "Ġpyjama": 4048,
      "Ġimpress": 4049,
      "Ġsetting": 4050,
      "Ġnaturally": 4051,
      "Ġwrink": 4052,
      "incess": 4053,
      "Ġpretty": 4054,
      "Ġinsert": 4055,
      "Ġfaux": 4056,
      "bow": 4057,
      "la": 4058,
      "à¥": 4059,
      "Ġbackground": 4060,
      "Ġhp": 4061,
      "Ġyoung": 4062,
      "Ġ150": 4063,
      "Ġperio": 4064,
      "Ġgan": 4065,
      "ects": 4066,
      "Ġsecurity": 4067,
      "Ġglitter": 4068,
      "ismo": 4069,
      "fra": 4070,
      "hd": 4071,
      "Ġsister": 4072,
      "Ġbank": 4073,
      "key": 4074,
      "Ġsmartphones": 4075,
      "oc": 4076,
      "Ġdrying": 4077,
      "eral": 4078,
      "Ġharmful": 4079,
      "Ġlinen": 4080,
      "Ġallowing": 4081,
      "Ġ21": 4082,
      "98": 4083,
      "specifications": 4084,
      "Ġreduces": 4085,
      "tail": 4086,
      "Ġ.,": 4087,
      "Ġflap": 4088,
      "Ġknife": 4089,
      "Ġtherm": 4090,
      "iant": 4091,
      "rish": 4092,
      "Ġenterpr": 4093,
      "Ġspecification": 4094,
      "ener": 4095,
      "Ġeveryone": 4096,
      "Ġbrightness": 4097,
      "Ġtag": 4098,
      "Ġhoney": 4099,
      "Ġblood": 4100,
      "Ġcoun": 4101,
      "amboo": 4102,
      "ored": 4103,
      "Ġseconds": 4104,
      "Ġskins": 4105,
      "buy": 4106,
      "Ġtee": 4107,
      "Ġbass": 4108,
      "Ļ¥": 4109,
      "mob": 4110,
      "Ġloss": 4111,
      "ept": 4112,
      "Ġautomatic": 4113,
      "Ġdisc": 4114,
      "Ġlingerie": 4115,
      "Ġfrequ": 4116,
      "inary": 4117,
      "dec": 4118,
      "Ġtreatment": 4119,
      "Ġstones": 4120,
      "Ġtoile": 4121,
      "max": 4122,
      "ampoo": 4123,
      "Ġphotos": 4124,
      "Ġstronger": 4125,
      "Ġcurved": 4126,
      "Ġantique": 4127,
      "Ġscar": 4128,
      "Ġconnection": 4129,
      ".;": 4130,
      "Ġnecessary": 4131,
      "Ġfavourite": 4132,
      "fast": 4133,
      "Ġpriv": 4134,
      "comes": 4135,
      "Ġbalance": 4136,
      "Ġnighty": 4137,
      "Ġmagnet": 4138,
      "Ġguide": 4139,
      "Ġchocol": 4140,
      "Ġirr": 4141,
      "Ġfading": 4142,
      "Ġglow": 4143,
      "Ġcraftsman": 4144,
      "Ġproperly": 4145,
      "Ġphys": 4146,
      "Ġcompartments": 4147,
      "Ġarr": 4148,
      "sol": 4149,
      "Ġbasic": 4150,
      "Ġpast": 4151,
      "Ġbacking": 4152,
      "Ġconver": 4153,
      "achable": 4154,
      "Ġfaster": 4155,
      "enance": 4156,
      "Ġbulb": 4157,
      "Ġretain": 4158,
      "ries": 4159,
      "usion": 4160,
      "gn": 4161,
      ".)": 4162,
      "Ġmotorcy": 4163,
      "Ġfemale": 4164,
      "Ġfingerprints": 4165,
      "Ġpub": 4166,
      "sy": 4167,
      "imin": 4168,
      "Ġkitt": 4169,
      "Ġclim": 4170,
      "dings": 4171,
      "Ġft": 4172,
      "compatibility": 4173,
      "Ġdispens": 4174,
      "Ġexplore": 4175,
      "shock": 4176,
      "agement": 4177,
      "home": 4178,
      "Ġgas": 4179,
      "Ġunbreakable": 4180,
      "acket": 4181,
      "Ġ120": 4182,
      "edic": 4183,
      "Ġprincess": 4184,
      "Ġamount": 4185,
      "Ġrope": 4186,
      "Ġperfection": 4187,
      "lightweight": 4188,
      "Ġmosqu": 4189,
      "har": 4190,
      "Ġgm": 4191,
      "Ġrespons": 4192,
      "Ġlit": 4193,
      "unt": 4194,
      "Ġclub": 4195,
      "Ġnose": 4196,
      "Ġrelease": 4197,
      "gre": 4198,
      "warm": 4199,
      "Ġchin": 4200,
      "Ġboots": 4201,
      "beautiful": 4202,
      "Ġcomfortably": 4203,
      "Ġboo": 4204,
      "ission": 4205,
      "Ġplates": 4206,
      "Ġmach": 4207,
      "Ġbangles": 4208,
      "make": 4209,
      "Ġdepend": 4210,
      "43": 4211,
      "Ġshampoo": 4212,
      "Ġ---": 4213,
      "Ġanything": 4214,
      "tle": 4215,
      "Ġger": 4216,
      "Ġhdmi": 4217,
      "iled": 4218,
      "there": 4219,
      "Ġsocks": 4220,
      "Ġblanket": 4221,
      "Ġson": 4222,
      "ĠâĢĶâĢĶ<": 4223,
      "Ġsha": 4224,
      "Ġgun": 4225,
      "Ġsomething": 4226,
      "Ġdone": 4227,
      "Ġdamaged": 4228,
      "Ġgoing": 4229,
      "isk": 4230,
      "allic": 4231,
      "Ġunn": 4232,
      "Ġsterling": 4233,
      "zer": 4234,
      "Ġshapes": 4235,
      "Ġtab": 4236,
      "Ġfly": 4237,
      "den": 4238,
      "Ġdensity": 4239,
      "rib": 4240,
      "Ġdecorate": 4241,
      "Ġassured": 4242,
      "Ġfolding": 4243,
      "Ġapplicable": 4244,
      "Ġtaking": 4245,
      "Ġmeasurements": 4246,
      "uffs": 4247,
      "Ġartwork": 4248,
      "Ġmor": 4249,
      "tw": 4250,
      "Ġter": 4251,
      "Ġgot": 4252,
      "Ġalter": 4253,
      "Ġtooth": 4254,
      "Ġsmud": 4255,
      "Ġmp": 4256,
      "66": 4257,
      "Ġole": 4258,
      "ret": 4259,
      "Ġpositive": 4260,
      "Ġamerican": 4261,
      "safe": 4262,
      "Ġhumid": 4263,
      "Ġdrawing": 4264,
      "41": 4265,
      "Ġembed": 4266,
      "Ġclut": 4267,
      "Ġsap": 4268,
      "Ġwriting": 4269,
      "ancing": 4270,
      "Ġ23": 4271,
      "\".": 4272,
      "Ġelements": 4273,
      "Ġoccur": 4274,
      "Ġleading": 4275,
      "Ġdate": 4276,
      "Ġstress": 4277,
      "your": 4278,
      "Ġprep": 4279,
      "Ġanimal": 4280,
      "Ġ99": 4281,
      "Ġcrafts": 4282,
      "Ġoffering": 4283,
      "Ġreceive": 4284,
      "Ġkickstand": 4285,
      "lifetime": 4286,
      "Ġnokia": 4287,
      "Ġmulticolour": 4288,
      "Ġassemble": 4289,
      "Ġbend": 4290,
      "Ġcompon": 4291,
      "Ġtechnical": 4292,
      "Ġmosquito": 4293,
      "mah": 4294,
      "class": 4295,
      "val": 4296,
      "Ġfigure": 4297,
      "Ġsever": 4298,
      "Ġbamboo": 4299,
      "Ġunnecessary": 4300,
      "Ġlord": 4301,
      "prov": 4302,
      "alog": 4303,
      "Ġsponge": 4304,
      "Ġjogg": 4305,
      "Ġlegs": 4306,
      "Ġpolo": 4307,
      "Ġrc": 4308,
      "Ġembedded": 4309,
      "Ġpowered": 4310,
      "Ġtips": 4311,
      "Ġscrap": 4312,
      "Ġaluminium": 4313,
      "Ġdu": 4314,
      "Ġothers": 4315,
      "Ġgrad": 4316,
      "Ġsomeone": 4317,
      "Ġages": 4318,
      "warranty": 4319,
      "Ġfather": 4320,
      "Ġcostume": 4321,
      "Ġham": 4322,
      "Ġrays": 4323,
      "Ġearring": 4324,
      "Ġcreated": 4325,
      "ule": 4326,
      ".,ãĢĲ": 4327,
      "Ġletter": 4328,
      "Ġcharming": 4329,
      "Ġenables": 4330,
      "Ġbuying": 4331,
      "wid": 4332,
      "Ġhigher": 4333,
      "Ġodor": 4334,
      "nity": 4335,
      "arger": 4336,
      "cling": 4337,
      "Ġpolished": 4338,
      "Ġrecharge": 4339,
      "arel": 4340,
      "Ġhuman": 4341,
      "Ġtrust": 4342,
      "Ġhandy": 4343,
      "Ġbol": 4344,
      "alth": 4345,
      "Ġprote": 4346,
      "adjustable": 4347,
      "Ġcrowd": 4348,
      "Ġbeige": 4349,
      "each": 4350,
      "Ġtwist": 4351,
      "Ġshield": 4352,
      "Ġplat": 4353,
      "Ġmaster": 4354,
      "Ġadorable": 4355,
      "Ġchance": 4356,
      "Ġknit": 4357,
      "Ġsense": 4358,
      "Ġunderwear": 4359,
      "Ġretail": 4360,
      "Ġvideos": 4361,
      "Ġsea": 4362,
      "Ġmatter": 4363,
      "Ġhass": 4364,
      "precise": 4365,
      "avail": 4366,
      "cial": 4367,
      "Ġfishing": 4368,
      "Ġfocus": 4369,
      "Ġhos": 4370,
      "ðŁĮ": 4371,
      "Ġroad": 4372,
      "orm": 4373,
      "Ġvision": 4374,
      "mag": 4375,
      "Ġgrowth": 4376,
      "Ġhousehold": 4377,
      "stre": 4378,
      "Ġgraceful": 4379,
      "Ġhim": 4380,
      "odor": 4381,
      "Ġmaxi": 4382,
      "ounge": 4383,
      "Ġmer": 4384,
      "Ġ250": 4385,
      "Ġanother": 4386,
      "Ġbranded": 4387,
      ">âľĶ": 4388,
      "Ġganesh": 4389,
      "look": 4390,
      "Ġweddings": 4391,
      "rishna": 4392,
      "...": 4393,
      "Ġdiary": 4394,
      "Ġformula": 4395,
      "Ġwip": 4396,
      "tech": 4397,
      "Ġhub": 4398,
      "tablets": 4399,
      "Ġhygi": 4400,
      "fingerprint": 4401,
      "ophobic": 4402,
      "Ġaccessible": 4403,
      "Ġcounter": 4404,
      "71": 4405,
      "cou": 4406,
      "Ġsymb": 4407,
      "Ġsatisfied": 4408,
      "54": 4409,
      "arning": 4410,
      "ifi": 4411,
      "Ġmaintenance": 4412,
      "aughter": 4413,
      "Ġalarm": 4414,
      "Ġyouth": 4415,
      "Ġfirmly": 4416,
      "quot": 4417,
      "Ġhooks": 4418,
      "Ġcalls": 4419,
      "ĠĠĠĠ": 4420,
      "Ġoptimal": 4421,
      "Ġimag": 4422,
      "Ġlehenga": 4423,
      "ney": 4424,
      "Ġcraftsmanship": 4425,
      "ette": 4426,
      "Ġnotes": 4427,
      "Ġguest": 4428,
      "72": 4429,
      "Ġholds": 4430,
      "!]": 4431,
      "Ġsymbol": 4432,
      "Ġraw": 4433,
      "dle": 4434,
      "Ġcrop": 4435,
      "Ġareas": 4436,
      "da": 4437,
      "rich": 4438,
      "Ġnur": 4439,
      "85": 4440,
      "iment": 4441,
      "Ġclips": 4442,
      "mar": 4443,
      "they": 4444,
      "asure": 4445,
      "natural": 4446,
      "Ġstoring": 4447,
      "Ġstation": 4448,
      "Ġapparel": 4449,
      "Ġgad": 4450,
      "py": 4451,
      "Ġterm": 4452,
      "Ġsink": 4453,
      "leg": 4454,
      "Ġadults": 4455,
      "âĦ": 4456,
      "ither": 4457,
      "Ġartis": 4458,
      "Ġidea": 4459,
      "Ġmater": 4460,
      "Ġcrepe": 4461,
      "Ġasked": 4462,
      "Ġrepres": 4463,
      "Ġintegr": 4464,
      "Ġbes": 4465,
      "Ġlayers": 4466,
      "Ġdinner": 4467,
      "Ġchop": 4468,
      "Ġcompan": 4469,
      "Ġhus": 4470,
      "Ġcutter": 4471,
      "Ġath": 4472,
      "Ġexception": 4473,
      "Ġcerem": 4474,
      "Ġmeasuring": 4475,
      "Ġreference": 4476,
      "Ġpipe": 4477,
      "ateg": 4478,
      "Ġmeasures": 4479,
      "icraft": 4480,
      "Ġdecorations": 4481,
      "year": 4482,
      "Ġlines": 4483,
      "Ġsandal": 4484,
      "ict": 4485,
      "Ġarmor": 4486,
      "Ġergonomic": 4487,
      "lets": 4488,
      "ah": 4489,
      "Ġabr": 4490,
      "Ġkore": 4491,
      "Ġdefects": 4492,
      "Ġkh": 4493,
      "Ġseasons": 4494,
      "lor": 4495,
      "Ġvia": 4496,
      "Ġmotorola": 4497,
      "Ġlic": 4498,
      "Ġsan": 4499,
      "Ġexcess": 4500,
      "acing": 4501,
      "apan": 4502,
      "ati": 4503,
      "feature": 4504,
      "disclaimer": 4505,
      "available": 4506,
      "Ġchic": 4507,
      "Ġtit": 4508,
      "Ġhi": 4509,
      "Ġposters": 4510,
      "support": 4511,
      "redit": 4512,
      "Ġrelaxed": 4513,
      "Ġbulky": 4514,
      "Ġshrink": 4515,
      "500": 4516,
      "oe": 4517,
      "house": 4518,
      "Ġ1000": 4519,
      "Ġdeal": 4520,
      "guard": 4521,
      "Ġwine": 4522,
      "special": 4523,
      "Ġindustr": 4524,
      "Ġneg": 4525,
      ";,": 4526,
      "Ġconce": 4527,
      "Ġscrews": 4528,
      "Ġloop": 4529,
      "Ġpor": 4530,
      "Ġversion": 4531,
      "Ġexterior": 4532,
      "pression": 4533,
      "Ġearphones": 4534,
      "imported": 4535,
      "Ġacid": 4536,
      "97": 4537,
      "loom": 4538,
      "64": 4539,
      "Ġthreads": 4540,
      "Ġbever": 4541,
      "Ġton": 4542,
      "Ġgiven": 4543,
      "lap": 4544,
      "Ġbabies": 4545,
      "itary": 4546,
      "asp": 4547,
      "Ġblaz": 4548,
      "Ġrestaur": 4549,
      "Ġconsist": 4550,
      "Ġlimited": 4551,
      "Ġpreventing": 4552,
      "Ġcontinu": 4553,
      "isticated": 4554,
      "ress": 4555,
      "Ġsleeping": 4556,
      "Ġplating": 4557,
      "acqu": 4558,
      "Ġboot": 4559,
      "aj": 4560,
      "Ġenhanced": 4561,
      "Ġmetallic": 4562,
      "Ġgrand": 4563,
      "Ġtextured": 4564,
      "Ġvegetable": 4565,
      "Ġdial": 4566,
      "Ġballoons": 4567,
      "Ġinstantly": 4568,
      "Ġsay": 4569,
      "Ġcreates": 4570,
      "Ġpoo": 4571,
      "Ġevent": 4572,
      "access": 4573,
      "Ġlunch": 4574,
      "Ġpig": 4575,
      "Ġcozy": 4576,
      "Ġaes": 4577,
      "Ġmacbook": 4578,
      "Ġdesktop": 4579,
      "ounce": 4580,
      "Ġenvironmental": 4581,
      "Ġcollege": 4582,
      "Ġlaptops": 4583,
      "Ġsteam": 4584,
      "Ġgames": 4585,
      "Ġraj": 4586,
      "Ġcra": 4587,
      "Ġsocket": 4588,
      "Ġcontainers": 4589,
      "silver": 4590,
      "mp": 4591,
      "Ġcontroller": 4592,
      "Ġconnectors": 4593,
      "Ġstructure": 4594,
      "Ġresin": 4595,
      "Ġcommon": 4596,
      "Ġgismo": 4597,
      "Ġfestivals": 4598,
      "manship": 4599,
      "Ġidol": 4600,
      "ser": 4601,
      "Ġcabinet": 4602,
      "Ġreading": 4603,
      "Ġinternal": 4604,
      "Ġcombined": 4605,
      "ready": 4606,
      "Ġexpect": 4607,
      "bit": 4608,
      "Ġjoy": 4609,
      "ndom": 4610,
      "Ġrelief": 4611,
      "ample": 4612,
      "Ġshoot": 4613,
      "Ġlounge": 4614,
      "Ġcircuit": 4615,
      "Ġhind": 4616,
      "ÂłÂł": 4617,
      "brown": 4618,
      "Ġlive": 4619,
      "Ġblades": 4620,
      "Ġunderstand": 4621,
      "94": 4622,
      "Ġseveral": 4623,
      "Ġbacter": 4624,
      "rees": 4625,
      "Ġequipped": 4626,
      "Ġsophisticated": 4627,
      "91": 4628,
      ".,[": 4629,
      "Ġunt": 4630,
      "Ġindividual": 4631,
      "Ġthank": 4632,
      "Ġdepth": 4633,
      "phire": 4634,
      "Ġir": 4635,
      "Ġvo": 4636,
      "iffon": 4637,
      "Ġaccom": 4638,
      "berry": 4639,
      "Ġbasis": 4640,
      "Ġhiking": 4641,
      "Ġbroken": 4642,
      "Ġproduction": 4643,
      "now": 4644,
      "Ġdelivers": 4645,
      ">*": 4646,
      "model": 4647,
      "dress": 4648,
      "Ġfunny": 4649,
      "Ġer": 4650,
      "aren": 4651,
      "Ġprolong": 4652,
      "Ġcontrast": 4653,
      "Ġmuscle": 4654,
      "Ġfacial": 4655,
      "clean": 4656,
      "Ġrotating": 4657,
      "Ġkrishna": 4658,
      "mod": 4659,
      "rench": 4660,
      "bab": 4661,
      "vi": 4662,
      "Ġinterface": 4663,
      "inding": 4664,
      "Ġshades": 4665,
      "girls": 4666,
      "Ġcoloured": 4667,
      "Ġhoodie": 4668,
      "Ġja": 4669,
      "Ġhassle": 4670,
      "Ġbelieve": 4671,
      "Ġprices": 4672,
      "Ġloo": 4673,
      "Ġluck": 4674,
      "Ġthink": 4675,
      "Ġ400": 4676,
      "Ġdoors": 4677,
      "Ġdesigners": 4678,
      "nds": 4679,
      "Ġur": 4680,
      "Ġelimin": 4681,
      "pered": 4682,
      "Ġcredit": 4683,
      "Ġplayer": 4684,
      "Ġast": 4685,
      "watch": 4686,
      "Ġboxes": 4687,
      "protection": 4688,
      "itely": 4689,
      "Ġexc": 4690,
      "adi": 4691,
      "Ġapplications": 4692,
      "/>-": 4693,
      "ĠÂ": 4694,
      "Ġkept": 4695,
      "grey": 4696,
      "Ġcycle": 4697,
      "Ġhealing": 4698,
      "night": 4699,
      ");": 4700,
      "Ġrechargeable": 4701,
      "Ġmounting": 4702,
      "Ġcorrosion": 4703,
      "smooth": 4704,
      "Ġtoxic": 4705,
      "Ġgarment": 4706,
      "iors": 4707,
      "ented": 4708,
      "Ġwebs": 4709,
      "Ġnear": 4710,
      "Ġpool": 4711,
      "onse": 4712,
      "Ġseen": 4713,
      "Ġsky": 4714,
      "Ġexist": 4715,
      "aries": 4716,
      "Ġconsumption": 4717,
      "Ġneat": 4718,
      "Ġabras": 4719,
      "skin": 4720,
      ">âĺħ": 4721,
      "Ġonto": 4722,
      "cam": 4723,
      "Ġvegetables": 4724,
      "Ġability": 4725,
      "shoulder": 4726,
      "verse": 4727,
      "Ġfactory": 4728,
      "Ġsweater": 4729,
      "Ġmarks": 4730,
      "ino": 4731,
      "Ġsoftness": 4732,
      "fold": 4733,
      "have": 4734,
      "Ġtotally": 4735,
      "Ġcountry": 4736,
      "Ġaffect": 4737,
      "Ġsapphire": 4738,
      "pan": 4739,
      "installation": 4740,
      "Ġactivity": 4741,
      "Ġdrawstring": 4742,
      "Ġhusband": 4743,
      "Ġlate": 4744,
      "Ġtrav": 4745,
      "Ġordering": 4746,
      "Ġnick": 4747,
      "Ġqueen": 4748,
      "Ġthrow": 4749,
      "Ġpurpos": 4750,
      "Ġperiod": 4751,
      "Ġsweatshirt": 4752,
      "Ġintro": 4753,
      "Ġvalu": 4754,
      "Ġdaughter": 4755,
      "Ġframed": 4756,
      "Ġthermal": 4757,
      "Ġsuf": 4758,
      "duce": 4759,
      "Ġspirit": 4760,
      "Ġbirthdays": 4761,
      "Ġjoint": 4762,
      "Ġdiff": 4763,
      "va": 4764,
      "inches": 4765,
      "Ġum": 4766,
      "Ġcooling": 4767,
      "Ġcartr": 4768,
      "cum": 4769,
      "Ġsugar": 4770,
      "Ġmotorcycle": 4771,
      "âĿ¤ï¸ı": 4772,
      "Ġthing": 4773,
      "Ġodour": 4774,
      "Ġspread": 4775,
      "Ġstudy": 4776,
      "Ġlg": 4777,
      "Ġdetachable": 4778,
      "Ġweeks": 4779,
      "Ġsoil": 4780,
      "portable": 4781,
      "Ġfridge": 4782,
      "Ġculture": 4783,
      "!<": 4784,
      "51": 4785,
      "Ġdream": 4786,
      "annel": 4787,
      "Ġtiss": 4788,
      "Ġillustr": 4789,
      "Ġpeace": 4790,
      "Ġwebsite": 4791,
      "Ġeva": 4792,
      "Ġhandicraft": 4793,
      "300": 4794,
      "Ġprotein": 4795,
      "Ġnano": 4796,
      "01": 4797,
      "change": 4798,
      "Ġhat": 4799,
      "Ġsticks": 4800,
      "360": 4801,
      "emble": 4802,
      "Ġsucc": 4803,
      "Ġcock": 4804,
      "artz": 4805,
      "Ġkno": 4806,
      "Ġslipping": 4807,
      "ten": 4808,
      "Ġben": 4809,
      "Ġbrands": 4810,
      "vol": 4811,
      "Ġupgrad": 4812,
      "Ġlevels": 4813,
      "Ġcro": 4814,
      "Ġweigh": 4815,
      "Ġcholi": 4816,
      "Ġclosed": 4817,
      "Ġresponse": 4818,
      "Ġvert": 4819,
      "ban": 4820,
      "Ġdegrees": 4821,
      "Ġfibre": 4822,
      "han": 4823,
      "aras": 4824,
      "eling": 4825,
      "aps": 4826,
      "Ġcaus": 4827,
      "Ġmaternity": 4828,
      "Ġcreating": 4829,
      "Ġhardware": 4830,
      "Ġcast": 4831,
      "ral": 4832,
      "Ġsnack": 4833,
      "allerg": 4834,
      "Ġpurposes": 4835,
      "Ġmaroon": 4836,
      "duction": 4837,
      "Ġfle": 4838,
      "Ġarch": 4839,
      "Ġrecommend": 4840,
      "conven": 4841,
      "Ġbubbles": 4842,
      "Ġtoilet": 4843,
      "Ġvitamin": 4844,
      "Ġmotion": 4845,
      "gm": 4846,
      "land": 4847,
      "umes": 4848,
      "Ġchina": 4849,
      "Ġcompression": 4850,
      "Ġfla": 4851,
      "Ġdispenser": 4852,
      "Ġram": 4853,
      "Ġsolve": 4854,
      "Ġsequ": 4855,
      "Ġalph": 4856,
      "fam": 4857,
      "Ġrare": 4858,
      "bud": 4859,
      "excellent": 4860,
      "Ġpainted": 4861,
      "Ġprivacy": 4862,
      "Ġcycling": 4863,
      "gra": 4864,
      "Ġselection": 4865,
      "Ġpouches": 4866,
      "Ġclutch": 4867,
      "Ġtowels": 4868,
      "otic": 4869,
      "Ġ75": 4870,
      "76": 4871,
      "umn": 4872,
      "Ġrs": 4873,
      "protects": 4874,
      "Ġlovers": 4875,
      "Ġobjects": 4876,
      "Ġmd": 4877,
      "Ġelegantly": 4878,
      "Ġ&#": 4879,
      "Ġgod": 4880,
      "mers": 4881,
      "Ġbh": 4882,
      "Ġgoes": 4883,
      "Ġpul": 4884,
      "Ġwrite": 4885,
      "uction": 4886,
      "Ġcatch": 4887,
      "Ġdisclaimer": 4888,
      "party": 4889,
      "real": 4890,
      "Ġdistrib": 4891,
      "ureth": 4892,
      "Ġmill": 4893,
      "Ġchiffon": 4894,
      "ometer": 4895,
      "arency": 4896,
      "appl": 4897,
      "Ġlandsc": 4898,
      "Ġsony": 4899,
      "Ġcheap": 4900,
      "brell": 4901,
      "Ġrooms": 4902,
      "asth": 4903,
      "Ġsafely": 4904,
      "rest": 4905,
      "Ġpanels": 4906,
      "gy": 4907,
      "Ġpots": 4908,
      "Ġelectro": 4909,
      "Ġgroup": 4910,
      "cases": 4911,
      "aya": 4912,
      "Ġsolar": 4913,
      "Ġbrid": 4914,
      "za": 4915,
      "Ġholding": 4916,
      "Ġdriver": 4917,
      "Ġund": 4918,
      "Ġessentials": 4919,
      "Ġcombed": 4920,
      "Ġrefriger": 4921,
      "Ġ2019": 4922,
      "Ġeffortless": 4923,
      "Ġpix": 4924,
      "Ġpoll": 4925,
      "Ġerr": 4926,
      "Ġcompanion": 4927,
      "uly": 4928,
      "Ġabsolute": 4929,
      "Ġmarvel": 4930,
      "Ġutens": 4931,
      "Ġchocolate": 4932,
      "Ġjapan": 4933,
      "Ġfilling": 4934,
      "Ġleaf": 4935,
      "Ġslide": 4936,
      "what": 4937,
      "Ġglam": 4938,
      "Ġpark": 4939,
      "Ġgraphics": 4940,
      "Ġdv": 4941,
      "Ġavailability": 4942,
      "Ġmovie": 4943,
      "Ġoperate": 4944,
      "urethane": 4945,
      "hra": 4946,
      "Ġ95": 4947,
      "Ġgeneration": 4948,
      "Ġmarr": 4949,
      "Ġauthor": 4950,
      "iency": 4951,
      "ost": 4952,
      "Ġembell": 4953,
      "Ġworkmanship": 4954,
      "Ġrefund": 4955,
      "Ġspot": 4956,
      "Ġextension": 4957,
      "Ġthough": 4958,
      "Ġbrushes": 4959,
      "Ġremain": 4960,
      "Ġamong": 4961,
      "Ġyarn": 4962,
      "utely": 4963,
      "also": 4964,
      "Ġapart": 4965,
      "Ġsoak": 4966,
      "spe": 4967,
      "Ġcustomize": 4968,
      "96": 4969,
      "Ġsilky": 4970,
      "Ġtoddler": 4971,
      "hind": 4972,
      "Ġconst": 4973,
      "ulous": 4974,
      "Ġshiny": 4975,
      "Ġ220": 4976,
      "oke": 4977,
      "ops": 4978,
      "apy": 4979,
      "Ġspice": 4980,
      "Ġquotes": 4981,
      "Ġsnug": 4982,
      "Ġbesides": 4983,
      "wall": 4984,
      "Ġhydr": 4985,
      "Ġ[<": 4986,
      "Ġcaps": 4987,
      "une": 4988,
      "\"-": 4989,
      "usb": 4990,
      "Ġcomplement": 4991,
      "Ġdrain": 4992,
      "Ġincred": 4993,
      "Ġeither": 4994,
      "brush": 4995,
      "Ġstands": 4996,
      "Ġpep": 4997,
      "Ġxs": 4998,
      "Ġbikini": 4999,
      "52": 5000,
      "Ġfoil": 5001,
      ">&#": 5002,
      "waterproof": 5003,
      "Ġtravelling": 5004,
      "eu": 5005,
      "Ġrect": 5006,
      "tem": 5007,
      "Ġservices": 5008,
      "min": 5009,
      "Ġaesthetic": 5010,
      "ji": 5011,
      "Ġbands": 5012,
      "Ġstatue": 5013,
      "Ġshatterproof": 5014,
      "Ġmounted": 5015,
      "Ġlipstick": 5016,
      "Ġgaming": 5017,
      "Ġmembers": 5018,
      "pic": 5019,
      "elt": 5020,
      "Ġtall": 5021,
      "Ġmention": 5022,
      "right": 5023,
      "amps": 5024,
      "Ġboost": 5025,
      "57": 5026,
      "Ġrefill": 5027,
      "Ġliner": 5028,
      "Ġtan": 5029,
      "Ġathlet": 5030,
      "ece": 5031,
      "Ġdye": 5032,
      "Ġcomposition": 5033,
      "----------------": 5034,
      "Ġcalled": 5035,
      "Ġspecific": 5036,
      "Ġgram": 5037,
      "Ġlabel": 5038,
      "Ġhotel": 5039,
      "Ġ65": 5040,
      "Ġstriped": 5041,
      "Ġinspired": 5042,
      "Ġpurse": 5043,
      "enna": 5044,
      "Ġkorean": 5045,
      "but": 5046,
      "Ġdefe": 5047,
      "Ġattire": 5048,
      "eness": 5049,
      "Ġremains": 5050,
      "Ġtreated": 5051,
      "Ġtruck": 5052,
      "works": 5053,
      "Ġedition": 5054,
      "Ġbat": 5055,
      "Ġumbrell": 5056,
      "Ġwithstand": 5057,
      "onal": 5058,
      "Ġallerg": 5059,
      "âľ¿": 5060,
      "Ġbold": 5061,
      "Ġrise": 5062,
      "Ġutility": 5063,
      "Ġ55": 5064,
      "cop": 5065,
      "Ġfrequency": 5066,
      "Ġsnow": 5067,
      "Ġexceptional": 5068,
      "Ġribbon": 5069,
      "imize": 5070,
      "Ġsooth": 5071,
      "Ġcreations": 5072,
      "Ġaroma": 5073,
      "Ġcuts": 5074,
      "double": 5075,
      "how": 5076,
      "Ġcapri": 5077,
      "Ġwidely": 5078,
      "ertain": 5079,
      "Ġunlike": 5080,
      "low": 5081,
      "Ġsalt": 5082,
      "Ġsmile": 5083,
      "Ġdrawer": 5084,
      "Ġmad": 5085,
      "ouses": 5086,
      "Ġsmaller": 5087,
      "kn": 5088,
      "Ġhighlight": 5089,
      "Ġscal": 5090,
      "Ġbridal": 5091,
      "Ġabsolutely": 5092,
      "Ġâĺ": 5093,
      "width": 5094,
      "Ġpooja": 5095,
      "Ġscarf": 5096,
      "etric": 5097,
      ",âľĶ": 5098,
      "onic": 5099,
      "includes": 5100,
      "Ġupgraded": 5101,
      "abet": 5102,
      "Ġbead": 5103,
      "Ġcomponents": 5104,
      "Ġcomprom": 5105,
      "Ġimproves": 5106,
      "########": 5107,
      "convenient": 5108,
      "Ġsized": 5109,
      "elly": 5110,
      "Ġwa": 5111,
      "58": 5112,
      "Ġsd": 5113,
      "Ġboyfriend": 5114,
      "ailed": 5115,
      "oles": 5116,
      "78": 5117,
      "Ġansw": 5118,
      "Ġdirection": 5119,
      "Ġlenses": 5120,
      "Ġplaces": 5121,
      "Ġsellers": 5122,
      "atched": 5123,
      "Ġmildew": 5124,
      "Ġasus": 5125,
      "Ġeduc": 5126,
      "Ġkurtis": 5127,
      "Ġjers": 5128,
      "defin": 5129,
      "Ġcirculation": 5130,
      "eco": 5131,
      "Ġhandloom": 5132,
      "Ġstays": 5133,
      "Ġcity": 5134,
      "Ġtransparency": 5135,
      "ï¼ļ": 5136,
      "Ġhyd": 5137,
      "metal": 5138,
      "Ġlined": 5139,
      "bir": 5140,
      "ples": 5141,
      "56": 5142,
      "Ġoven": 5143,
      "Ġguit": 5144,
      "Ġsling": 5145,
      "front": 5146,
      "Ġvisual": 5147,
      "bar": 5148,
      "family": 5149,
      "Ġhoriz": 5150,
      "dden": 5151,
      "purpose": 5152,
      "icer": 5153,
      "Ġsudden": 5154,
      "Ġlarger": 5155,
      "quo": 5156,
      "Ġnails": 5157,
      "baby": 5158,
      "Ġpages": 5159,
      "Ġroller": 5160,
      "lish": 5161,
      "Ġtar": 5162,
      "abil": 5163,
      "edding": 5164,
      "Ġprojects": 5165,
      "Ġbird": 5166,
      "Ġusually": 5167,
      "Ġprim": 5168,
      "lb": 5169,
      "cose": 5170,
      "utions": 5171,
      "Ġwherever": 5172,
      "Ġ33": 5173,
      "Ġswimming": 5174,
      "Ġtriple": 5175,
      "Ġproduced": 5176,
      "Ġoptical": 5177,
      "Ġprior": 5178,
      "Ġ2018": 5179,
      ".,âĺħ": 5180,
      "Ġdogs": 5181,
      "Ġartisans": 5182,
      "ff": 5183,
      "bell": 5184,
      "Ġassorted": 5185,
      "47": 5186,
      "Ġnour": 5187,
      "Ġpanties": 5188,
      "Ġartists": 5189,
      "Ġfeeding": 5190,
      "Ġassist": 5191,
      "Ġwick": 5192,
      ":&": 5193,
      "Ġdecal": 5194,
      "dom": 5195,
      "Ġshelves": 5196,
      "Ġpeeling": 5197,
      "Ġheating": 5198,
      "Ġbulbs": 5199,
      "fly": 5200,
      "Ġzero": 5201,
      "Ġswing": 5202,
      "foot": 5203,
      "Ġmop": 5204,
      "zel": 5205,
      "Ġjaipur": 5206,
      "Ġblended": 5207,
      "Ġfash": 5208,
      "Ġaccuracy": 5209,
      "hum": 5210,
      "Ġrecy": 5211,
      "Ġwish": 5212,
      "Ġshiva": 5213,
      "Ġupd": 5214,
      "born": 5215,
      "Ġnegative": 5216,
      "Ġay": 5217,
      "Ġparent": 5218,
      "Ġslipper": 5219,
      "âĢ¦": 5220,
      "68": 5221,
      ").,": 5222,
      "Ġmovies": 5223,
      "150": 5224,
      "Ġbaking": 5225,
      "Ġgrab": 5226,
      "Ġskirts": 5227,
      "Ġdef": 5228,
      "Ġblazer": 5229,
      "Ġrelie": 5230,
      "Ġeuro": 5231,
      "Ġheadband": 5232,
      "Ġvehicles": 5233,
      "Ġoxid": 5234,
      "oh": 5235,
      "Ġpens": 5236,
      "sa": 5237,
      "Ġalign": 5238,
      "Ġevents": 5239,
      "Ġmaker": 5240,
      "ask": 5241,
      "Ġoutdoors": 5242,
      "Ġdesigning": 5243,
      "Ġinstr": 5244,
      "ental": 5245,
      "sal": 5246,
      "uti": 5247,
      "Ġnap": 5248,
      "Ġvalve": 5249,
      "Ġfilled": 5250,
      "Ġ110": 5251,
      "Ġbean": 5252,
      "Ġaven": 5253,
      "Ġmood": 5254,
      "Ġerror": 5255,
      "atives": 5256,
      "arium": 5257,
      "Ġskills": 5258,
      "Ġhandling": 5259,
      "ta": 5260,
      "Ġnickel": 5261,
      "Ġdamp": 5262,
      "enn": 5263,
      "batter": 5264,
      "etch": 5265,
      "ylene": 5266,
      "Ġdefinitely": 5267,
      "rel": 5268,
      "Ġnutr": 5269,
      "Ġotg": 5270,
      "Ġfreely": 5271,
      "Ġcarr": 5272,
      "Ġpets": 5273,
      "eters": 5274,
      "77": 5275,
      "ulate": 5276,
      "Ġpercent": 5277,
      "180": 5278,
      "Ġflu": 5279,
      "Ġlatex": 5280,
      "Ġest": 5281,
      "versible": 5282,
      "Ġuntil": 5283,
      "Ġfive": 5284,
      "Ġquartz": 5285,
      ">]": 5286,
      "Ġrang": 5287,
      "Ġenvironmentally": 5288,
      "Ġped": 5289,
      "stain": 5290,
      "Ġoptimum": 5291,
      "Ġmand": 5292,
      "vis": 5293,
      "user": 5294,
      "flex": 5295,
      "Ġshipped": 5296,
      "Ġtransform": 5297,
      "Ġrandom": 5298,
      "88": 5299,
      "wal": 5300,
      "Ġachieve": 5301,
      "Ġearbud": 5302,
      "ki": 5303,
      "Ġtemple": 5304,
      "Ġsmell": 5305,
      "Ġcannot": 5306,
      "imately": 5307,
      "Ġfleece": 5308,
      "multicolor": 5309,
      "Ġcooler": 5310,
      "definition": 5311,
      "glass": 5312,
      "??": 5313,
      "Ġresists": 5314,
      "Ġseparate": 5315,
      "anted": 5316,
      "Ġjuice": 5317,
      "Ġengineered": 5318,
      "Ġplatform": 5319,
      "Ġanalog": 5320,
      "Ġrounded": 5321,
      "Ġrequires": 5322,
      "Ġefficiency": 5323,
      "lers": 5324,
      "Ġwig": 5325,
      "osph": 5326,
      "Ġsale": 5327,
      "namic": 5328,
      "Ġabsorbs": 5329,
      "Ġpage": 5330,
      "'ve": 5331,
      "adow": 5332,
      "Ġ),": 5333,
      "Ġpp": 5334,
      "10004": 5335,
      "Ġhorizont": 5336,
      "iet": 5337,
      "Ġhuge": 5338,
      "Ġcateg": 5339,
      "ference": 5340,
      "load": 5341,
      "Ġumbrella": 5342,
      "Ġphysical": 5343,
      "Ġliquids": 5344,
      "Ġswimsuit": 5345,
      "atable": 5346,
      "umber": 5347,
      "120": 5348,
      "eding": 5349,
      "Ġatm": 5350,
      "Ġfu": 5351,
      "Ġsurpr": 5352,
      "decor": 5353,
      "Ġinstrum": 5354,
      "Ġenable": 5355,
      "elect": 5356,
      "Ġhid": 5357,
      "Ġoutsole": 5358,
      "inct": 5359,
      "Ġemail": 5360,
      "Ġstim": 5361,
      "apa": 5362,
      "Ġchanging": 5363,
      "height": 5364,
      "urance": 5365,
      "Ġdelight": 5366,
      "Ġinsulated": 5367,
      "Ġlandscape": 5368,
      "ika": 5369,
      "Ġted": 5370,
      "Ġanyone": 5371,
      "Ġslow": 5372,
      "Ġentertain": 5373,
      "Ġoleophobic": 5374,
      "Ġbedding": 5375,
      "Ġlink": 5376,
      "Ġcushioning": 5377,
      "reli": 5378,
      "provides": 5379,
      "ãĢĳ:": 5380,
      "Ġbell": 5381,
      "Ġnar": 5382,
      "Ġdetailing": 5383,
      "Ġjersey": 5384,
      "aky": 5385,
      "Ġscratching": 5386,
      "Ġweb": 5387,
      "ŀ¤": 5388,
      "Ġsuction": 5389,
      "Ġcompared": 5390,
      "ĠâľĶ": 5391,
      "wr": 5392,
      "Ġsof": 5393,
      "Ġhowever": 5394,
      "iring": 5395,
      "Ġ350": 5396,
      "ived": 5397,
      "Ġtrouser": 5398,
      "remo": 5399,
      "alle": 5400,
      "Ġmarri": 5401,
      "Ġartist": 5402,
      "lifestyle": 5403,
      "Ġcandle": 5404,
      "ada": 5405,
      "Ġshops": 5406,
      "precision": 5407,
      "Ġmorning": 5408,
      "53": 5409,
      "Ġgall": 5410,
      "Ġdrinking": 5411,
      "mobile": 5412,
      "Ġtaken": 5413,
      "Ġcharges": 5414,
      "Ġoften": 5415,
      "pants": 5416,
      "Ġarmy": 5417,
      "uation": 5418,
      "Ġdesired": 5419,
      "Ġrig": 5420,
      "Ġpolyurethane": 5421,
      "antic": 5422,
      "Ġrequirements": 5423,
      "Ġorganized": 5424,
      "asant": 5425,
      "place": 5426,
      "Ġscuffs": 5427,
      "apple": 5428,
      "Ġbacteria": 5429,
      "Ġdefender": 5430,
      "Ġdesg": 5431,
      "Ġrisk": 5432,
      "240": 5433,
      "superior": 5434,
      "Ġzoom": 5435,
      "chain": 5436,
      "cony": 5437,
      "Ġchand": 5438,
      "Ġrud": 5439,
      "eras": 5440,
      "absor": 5441,
      "Ġanytime": 5442,
      "oxid": 5443,
      "door": 5444,
      "transp": 5445,
      "Ġteeth": 5446,
      "Ġquilt": 5447,
      "Ġtransport": 5448,
      "Ġkitty": 5449,
      "Ġaccent": 5450,
      "Ġvivid": 5451,
      "eleg": 5452,
      "Ġdocum": 5453,
      "down": 5454,
      "Ġemerg": 5455,
      "Ġconstructed": 5456,
      "Ġtunic": 5457,
      "antra": 5458,
      "Ġpicnic": 5459,
      "Ġusers": 5460,
      "Ġtissue": 5461,
      "Ġride": 5462,
      "Ġcarved": 5463,
      "Ġdetailed": 5464,
      "Ġcompliments": 5465,
      ".,â": 5466,
      "solid": 5467,
      "Ġimmed": 5468,
      "Ġtor": 5469,
      "Ġamp": 5470,
      "Ġshining": 5471,
      "Ġpartner": 5472,
      "cohol": 5473,
      "Ġlearning": 5474,
      "Ġvisit": 5475,
      "Ġoffic": 5476,
      "Ġforce": 5477,
      "thr": 5478,
      "itate": 5479,
      "Ġexisting": 5480,
      "Ġhappiness": 5481,
      "Ġbehind": 5482,
      "Ġflo": 5483,
      "Ġimproved": 5484,
      "ional": 5485,
      "Ġfile": 5486,
      "Ġapplying": 5487,
      "Ġfair": 5488,
      "ashes": 5489,
      "Ġguitar": 5490,
      "Ġtees": 5491,
      "sd": 5492,
      "ica": 5493,
      "Ġremoves": 5494,
      "67": 5495,
      "iance": 5496,
      "sue": 5497,
      "gers": 5498,
      "Ġdemand": 5499,
      "Ġgeneral": 5500,
      "uggage": 5501,
      "Ġlbs": 5502,
      "illiant": 5503,
      "Ġrepresent": 5504,
      "Ġbi": 5505,
      "Ġsquee": 5506,
      "ration": 5507,
      "sun": 5508,
      "rolog": 5509,
      "Ġstraw": 5510,
      "Ġutmost": 5511,
      "Ġbuyer": 5512,
      "attoo": 5513,
      "Ġflaunt": 5514,
      "cond": 5515,
      "woven": 5516,
      "Ġbudd": 5517,
      "Ġgum": 5518,
      "Ġrajasth": 5519,
      "Ġornam": 5520,
      "ora": 5521,
      "Ġincreases": 5522,
      "Ġmiddle": 5523,
      "Ġhooded": 5524,
      "ircon": 5525,
      "Ġ29": 5526,
      "Ġhose": 5527,
      "Ġarts": 5528,
      "ellig": 5529,
      "Ġcarpets": 5530,
      "Ġouts": 5531,
      "Ġbracket": 5532,
      "Ġimpressive": 5533,
      "Ġnotice": 5534,
      "Ġrakhi": 5535,
      "Ġanim": 5536,
      "Ġjour": 5537,
      "Ġtruly": 5538,
      "Ġaim": 5539,
      ":-</": 5540,
      "Ġwired": 5541,
      "Ġmean": 5542,
      "Ġcloset": 5543,
      "Ġfabulous": 5544,
      "Ġcour": 5545,
      "Ġmanufacture": 5546,
      "Ġrob": 5547,
      "Ġcompet": 5548,
      "clear": 5549,
      "osed": 5550,
      "Ġceremony": 5551,
      "Ġselling": 5552,
      "ÃĹ": 5553,
      "stract": 5554,
      "ba": 5555,
      "thin": 5556,
      "ival": 5557,
      "92": 5558,
      "Ġtransmission": 5559,
      "Ġtraveling": 5560,
      "Ġearth": 5561,
      "Ġfulf": 5562,
      "Ġtact": 5563,
      "ez": 5564,
      "Ġlau": 5565,
      "Ġhomes": 5566,
      "Ġios": 5567,
      "Ġindicator": 5568,
      "Ġvoice": 5569,
      "ses": 5570,
      "Ġgro": 5571,
      "Ġsmoothly": 5572,
      "Ġol": 5573,
      "Ġunw": 5574,
      "Ġ600": 5575,
      "Ġcartridge": 5576,
      "Ġinterest": 5577,
      "Ġgender": 5578,
      "ci": 5579,
      "kin": 5580,
      "ifunction": 5581,
      "accur": 5582,
      "aring": 5583,
      "Ġps": 5584,
      "Ġzen": 5585,
      "Ġspruce": 5586,
      "83": 5587,
      "Ġabsorbing": 5588,
      "Ġaltern": 5589,
      "rot": 5590,
      "Ġneo": 5591,
      "itizer": 5592,
      "59": 5593,
      "Ġlav": 5594,
      "ators": 5595,
      "pm": 5596,
      "Ġcushions": 5597,
      "Ġvertical": 5598,
      "Ġmaj": 5599,
      "Ġbangle": 5600,
      "Ġtattoo": 5601,
      "Ġdispos": 5602,
      "vity": 5603,
      "Ġshows": 5604,
      "inse": 5605,
      "inning": 5606,
      "Ġpaste": 5607,
      "stretch": 5608,
      "itude": 5609,
      "point": 5610,
      "wire": 5611,
      "Ġgadget": 5612,
      "ules": 5613,
      "don": 5614,
      "par": 5615,
      "Ġrecording": 5616,
      "mot": 5617,
      "aker": 5618,
      "athers": 5619,
      "trend": 5620,
      "gon": 5621,
      "Ġblocks": 5622,
      "Ġvan": 5623,
      "skid": 5624,
      "pure": 5625,
      "Ġgarments": 5626,
      "ca": 5627,
      "Ġsticky": 5628,
      "Ġrh": 5629,
      "cro": 5630,
      "Ġgb": 5631,
      "Ġnav": 5632,
      "Ġexpand": 5633,
      "cloth": 5634,
      "Ġjewels": 5635,
      "Ġluggage": 5636,
      "Ġzircon": 5637,
      "Ġforward": 5638,
      "washed": 5639,
      "Ġmolded": 5640,
      "]:": 5641,
      "Ġproduce": 5642,
      "ello": 5643,
      "Ġsection": 5644,
      "padded": 5645,
      "Ġstretchy": 5646,
      "Ġventil": 5647,
      "Ġjars": 5648,
      "Ġhanger": 5649,
      "Ġcode": 5650,
      "Ġbooks": 5651,
      "Ġcric": 5652,
      "Ġbump": 5653,
      "==": 5654,
      "Ġspac": 5655,
      "allow": 5656,
      "Ġteddy": 5657,
      "Ġmedia": 5658,
      "Ġpregn": 5659,
      "peeling": 5660,
      "Ġom": 5661,
      "Ġmud": 5662,
      "Ġka": 5663,
      "Ġ39": 5664,
      "Ġli": 5665,
      "Ġclay": 5666,
      "Ġsewing": 5667,
      "Ġissue": 5668,
      "urved": 5669,
      "hang": 5670,
      "Ġdie": 5671,
      "view": 5672,
      "Ġgoo": 5673,
      "Ġjelly": 5674,
      "Ġsmudges": 5675,
      "Ġaa": 5676,
      "Ġjute": 5677,
      "elegant": 5678,
      "ingers": 5679,
      "Ġhtc": 5680,
      "Ġinteriors": 5681,
      "iration": 5682,
      "ogn": 5683,
      "asonic": 5684,
      "two": 5685,
      "Ġpolymer": 5686,
      "polyester": 5687,
      "Ġfreezer": 5688,
      "Ġdecorating": 5689,
      "Ġdance": 5690,
      "Ġordinary": 5691,
      "62": 5692,
      "Ġoutstanding": 5693,
      "Ġthor": 5694,
      "Ġpoints": 5695,
      "cre": 5696,
      "ker": 5697,
      "2018": 5698,
      "Ġherbal": 5699,
      "\"<": 5700,
      "arasi": 5701,
      "Ġmuscles": 5702,
      "gle": 5703,
      "Ġsix": 5704,
      "kind": 5705,
      "Ġcameras": 5706,
      "Ġconstant": 5707,
      "Ġriding": 5708,
      "capacity": 5709,
      "Ġregister": 5710,
      "multicolour": 5711,
      "Ġident": 5712,
      "Ġelse": 5713,
      "Ġcosmetics": 5714,
      "Ġsafer": 5715,
      "Ġthous": 5716,
      "step": 5717,
      "Ġmiss": 5718,
      "Ġminimum": 5719,
      "Ġsales": 5720,
      "battery": 5721,
      "tot": 5722,
      "Ġcocktail": 5723,
      ">ðŁĴ": 5724,
      "Ġasp": 5725,
      "Ġdear": 5726,
      "Ġbullet": 5727,
      "Ġbottoms": 5728,
      "samsung": 5729,
      "Ġchips": 5730,
      "Ġabrasion": 5731,
      "Ġgrill": 5732,
      "office": 5733,
      "Ġspect": 5734,
      "Ġrefrigerator": 5735,
      "Ġstack": 5736,
      "Ġcreativity": 5737,
      "Ġexample": 5738,
      "Ġreducing": 5739,
      "Ġballs": 5740,
      "ingo": 5741,
      "Ġenterprises": 5742,
      "Ġabstract": 5743,
      "raksha": 5744,
      "Ġalphabet": 5745,
      "Ġarray": 5746,
      "Ġdiv": 5747,
      "Ġhelmet": 5748,
      "epend": 5749,
      "simple": 5750,
      "recomme": 5751,
      ",âĺħ": 5752,
      "Ġsliding": 5753,
      "uki": 5754,
      "Ġceiling": 5755,
      "Ġconsid": 5756,
      "stainless": 5757,
      "Ġimm": 5758,
      "Ġeyel": 5759,
      "Ġviscose": 5760,
      "Ġwears": 5761,
      "kh": 5762,
      "sens": 5763,
      "Ġflag": 5764,
      "\")": 5765,
      "Ġstudio": 5766,
      "110": 5767,
      "69": 5768,
      "Ġwatt": 5769,
      "Ġbegin": 5770,
      "Ġpadding": 5771,
      "Ġissu": 5772,
      "Ġtam": 5773,
      "combo": 5774,
      "Ġvirgin": 5775,
      "loud": 5776,
      "nut": 5777,
      "Ġsuccess": 5778,
      "Ġcandy": 5779,
      "Ġtoughened": 5780,
      "asts": 5781,
      "leather": 5782,
      "Ġsleepwear": 5783,
      "Ġspeeds": 5784,
      "kurt": 5785,
      "coura": 5786,
      "Ġengagement": 5787,
      "Ġ/>-": 5788,
      "elastic": 5789,
      "Ġholders": 5790,
      "Ġtowards": 5791,
      "prof": 5792,
      "Ġpillows": 5793,
      "Ġfixed": 5794,
      "Ġcushioned": 5795,
      "igious": 5796,
      "Ġlighter": 5797,
      "indian": 5798,
      "Ġencoura": 5799,
      "Ġwatches": 5800,
      "Ġdistinct": 5801,
      "reme": 5802,
      "Ġcris": 5803,
      "Ġgray": 5804,
      "Ġaquarium": 5805,
      "Ġpotter": 5806,
      "Ġshowpiece": 5807,
      "kids": 5808,
      "every": 5809,
      "Ġharsh": 5810,
      "Ġcontour": 5811,
      "Ġmechanism": 5812,
      "Ġparticles": 5813,
      "89": 5814,
      "Ġearbuds": 5815,
      "Ġforever": 5816,
      "Ġzari": 5817,
      "orous": 5818,
      "Ġgerman": 5819,
      "\"\"": 5820,
      "Ġserious": 5821,
      "Ġalcohol": 5822,
      "iately": 5823,
      "ager": 5824,
      "Ġsensors": 5825,
      "hip": 5826,
      "Ġba": 5827,
      "Ġindustrial": 5828,
      "Ġfingers": 5829,
      "Ġworth": 5830,
      "orange": 5831,
      "Ġvast": 5832,
      "usage": 5833,
      "Ġmotiv": 5834,
      "Ġtripod": 5835,
      "Ġarms": 5836,
      "igue": 5837,
      "Ġadorn": 5838,
      "Ġtesting": 5839,
      "aff": 5840,
      "Ġmarriage": 5841,
      "Ġtailored": 5842,
      "ugs": 5843,
      "uted": 5844,
      "Ġvaluable": 5845,
      "Ġbalcony": 5846,
      "Ġhidden": 5847,
      "Ġfog": 5848,
      ">.": 5849,
      "important": 5850,
      "Ġfrock": 5851,
      "Ġgau": 5852,
      "Ġ37": 5853,
      "Ġadjustment": 5854,
      "iya": 5855,
      "Ġmachines": 5856,
      "istine": 5857,
      "Ġdishes": 5858,
      "raps": 5859,
      "Ġapproved": 5860,
      "ural": 5861,
      "prop": 5862,
      "ndry": 5863,
      "Ġmixed": 5864,
      "cell": 5865,
      "iery": 5866,
      "Ġsip": 5867,
      "erry": 5868,
      "Ġsupple": 5869,
      "400": 5870,
      "squo": 5871,
      "Ġimaging": 5872,
      "Ġhous": 5873,
      "Ġkan": 5874,
      "Ġknob": 5875,
      "Ġguests": 5876,
      "Ġfusion": 5877,
      "iser": 5878,
      "Ġdryer": 5879,
      "ĠÃ¢": 5880,
      "Ġmatt": 5881,
      "onda": 5882,
      ";&#": 5883,
      "cool": 5884,
      "Ġfastness": 5885,
      "Ġpromise": 5886,
      "connect": 5887,
      "Ġpristine": 5888,
      "conut": 5889,
      "Ġrice": 5890,
      "edge": 5891,
      "Ġdressing": 5892,
      "netic": 5893,
      "Ġdedic": 5894,
      "chest": 5895,
      "Ġhal": 5896,
      "Ġchargers": 5897,
      "Ġdrinks": 5898,
      "Ġsoothing": 5899,
      "Ġsubst": 5900,
      "Ġmoulds": 5901,
      "Ġexpert": 5902,
      "rob": 5903,
      "Ġpajama": 5904,
      "zone": 5905,
      "Ġways": 5906,
      "Ġayurved": 5907,
      "gs": 5908,
      "Ġpermanent": 5909,
      "Ġdevelopment": 5910,
      "Ġpromote": 5911,
      "Ġdiaper": 5912,
      "Ġextend": 5913,
      "Ġastrolog": 5914,
      "Ġinsulation": 5915,
      "Ġemergency": 5916,
      "Ġfant": 5917,
      "oper": 5918,
      "Ġjackets": 5919,
      "Ġgrain": 5920,
      "Ġdetects": 5921,
      "ctor": 5922,
      "Ġdock": 5923,
      "eye": 5924,
      "when": 5925,
      "Ġlocks": 5926,
      "Ġapproximately": 5927,
      "Ġflaw": 5928,
      "Ġbuilding": 5929,
      "fi": 5930,
      "Ġinfused": 5931,
      "Ġnam": 5932,
      "Ġherbs": 5933,
      "Ġissues": 5934,
      "louders": 5935,
      "xh": 5936,
      "plus": 5937,
      "Ġspices": 5938,
      "Ġpaired": 5939,
      "001": 5940,
      "Ġtightly": 5941,
      "engsh": 5942,
      "Ġexchange": 5943,
      "flow": 5944,
      "transparent": 5945,
      "zip": 5946,
      "bott": 5947,
      "Ġii": 5948,
      "Ġreversible": 5949,
      "âĦ¢": 5950,
      "Ġreceiver": 5951,
      "hot": 5952,
      "Ġunwanted": 5953,
      "opl": 5954,
      "accurate": 5955,
      "Ġuniqu": 5956,
      "Ġmoving": 5957,
      "ache": 5958,
      "Ġintroduc": 5959,
      "Ġproud": 5960,
      "Ġnetwork": 5961,
      "Ġfalling": 5962,
      "Ġromantic": 5963,
      "Ġthought": 5964,
      "finish": 5965,
      "ested": 5966,
      "Ġwelcome": 5967,
      "74": 5968,
      "Ġnotch": 5969,
      "Ġscrapes": 5970,
      "quantity": 5971,
      "Ġganesha": 5972,
      "star": 5973,
      "Ġretro": 5974,
      "extra": 5975,
      "coat": 5976,
      "Ġsync": 5977,
      "Ġparticular": 5978,
      "02": 5979,
      "Ġdifferences": 5980,
      "Ġoperating": 5981,
      "Ġgh": 5982,
      "standard": 5983,
      "Ġcube": 5984,
      "pin": 5985,
      "Ġ!": 5986,
      "Ġ72": 5987,
      "Ġworldwide": 5988,
      "afers": 5989,
      "Ġconcent": 5990,
      "Ġoffered": 5991,
      "Ġalready": 5992,
      "Ġmilitary": 5993,
      "priate": 5994,
      "Ġrecogn": 5995,
      "Ġcommun": 5996,
      "Ġlamin": 5997,
      "ensed": 5998,
      "rsquo": 5999,
      "Ġtri": 6000,
      "Ġoffices": 6001,
      "Ġmdf": 6002,
      "87": 6003,
      "Ġchairs": 6004,
      "Ġcollections": 6005,
      "Ġ92": 6006,
      "fine": 6007,
      "Ġskilled": 6008,
      "Ġglob": 6009,
      "Ġfunky": 6010,
      "Ġsciss": 6011,
      "Ġgrass": 6012,
      "Ġcoord": 6013,
      "uster": 6014,
      "Ġappealing": 6015,
      "Ġcricket": 6016,
      "Ġpurchasing": 6017,
      "Ġremover": 6018,
      "Ġstreet": 6019,
      "current": 6020,
      "Ġvisible": 6021,
      "reliable": 6022,
      "Ġital": 6023,
      "Ġtarget": 6024,
      "Ġ925": 6025,
      "Ġchipping": 6026,
      "Ġlith": 6027,
      "Ġbanarasi": 6028,
      "Ġchur": 6029,
      "Ġimmediately": 6030,
      "Ġintegrated": 6031,
      "Ġintended": 6032,
      "attract": 6033,
      "Ġpollution": 6034,
      "Ġjogging": 6035,
      "Ġwrapped": 6036,
      "dual": 6037,
      "Ġscalp": 6038,
      "Ġscoot": 6039,
      "Ġbicy": 6040,
      "Ġemboss": 6041,
      "Ġsplash": 6042,
      "Ġ31": 6043,
      "Ġskid": 6044,
      "Ġdemands": 6045,
      "assion": 6046,
      "Ġneedle": 6047,
      "Ġfamous": 6048,
      "sec": 6049,
      "Ġquite": 6050,
      "Ġcommitted": 6051,
      "Ġpassion": 6052,
      "Ġsight": 6053,
      "61": 6054,
      "Ġfastest": 6055,
      "Ġteach": 6056,
      "asm": 6057,
      ")-": 6058,
      "Ġtherefore": 6059,
      "Ġlegging": 6060,
      "Ġfollowing": 6061,
      "Ġwearer": 6062,
      "mercial": 6063,
      "Ġelasticated": 6064,
      "Ġaccommod": 6065,
      "uxe": 6066,
      "Ġpalm": 6067,
      "Ġbucket": 6068,
      "rict": 6069,
      "Ġrinse": 6070,
      "Ġshooting": 6071,
      "Ġsteering": 6072,
      "Ġgorilla": 6073,
      "ores": 6074,
      "Ġcolourful": 6075,
      "Ġdead": 6076,
      "Ġwrinkle": 6077,
      "Ġsuperb": 6078,
      "Ġwifi": 6079,
      "Ġelectronics": 6080,
      "Ġadvant": 6081,
      "riction": 6082,
      "Ġstool": 6083,
      "Ġsou": 6084,
      "Ġrequirement": 6085,
      "Ġteen": 6086,
      "icing": 6087,
      "ongs": 6088,
      "Ġbezel": 6089,
      "ede": 6090,
      "Ġtc": 6091,
      "Ġemp": 6092,
      "Ġdynamic": 6093,
      "cable": 6094,
      "Ġdoing": 6095,
      "sat": 6096,
      "Ġ240": 6097,
      "Ġsitting": 6098,
      "Ġwere": 6099,
      "Ġruff": 6100,
      "Ġapprec": 6101,
      "86": 6102,
      "Ġbon": 6103,
      "Ġhero": 6104,
      "Ġborn": 6105,
      "Ġlemon": 6106,
      "Ġcells": 6107,
      "Ġutensils": 6108,
      "wise": 6109,
      "Ġregard": 6110,
      "Ġradio": 6111,
      "Ġreasonable": 6112,
      "Ġwaste": 6113,
      "Ġavengers": 6114,
      "Ġlady": 6115,
      "Ġelasticity": 6116,
      "imp": 6117,
      "zuki": 6118,
      "Ġfarm": 6119,
      "Ġgardening": 6120,
      "Ġhorizontal": 6121,
      "Ġcertification": 6122,
      "exclus": 6123,
      "Ġtimeless": 6124,
      "Ġstage": 6125,
      "included": 6126,
      "ione": 6127,
      "Ġlaundry": 6128,
      "Ġnumbers": 6129,
      "prime": 6130,
      "umpsuit": 6131,
      "after": 6132,
      "dra": 6133,
      "kart": 6134,
      "Ġchannel": 6135,
      "Ġcaused": 6136,
      "iform": 6137,
      "Ġsheer": 6138,
      "Ġanswer": 6139,
      "84": 6140,
      "Ġknitted": 6141,
      "Ġhygienic": 6142,
      "Ġelectrical": 6143,
      "Ġ41": 6144,
      "Ġdirty": 6145,
      "Ġfiller": 6146,
      "emark": 6147,
      "angular": 6148,
      "Ġglare": 6149,
      "which": 6150,
      "Ġcir": 6151,
      "Ġmodes": 6152,
      "Ġhallow": 6153,
      "Ġanimals": 6154,
      "Ġpleasant": 6155,
      "Ġnarrow": 6156,
      "recommended": 6157,
      "Ġdried": 6158,
      "ibly": 6159,
      "catching": 6160,
      "Ġpride": 6161,
      "Ġorganize": 6162,
      "shr": 6163,
      "washing": 6164,
      "erts": 6165,
      "Ġfemin": 6166,
      "diam": 6167,
      "Ġâĺħ": 6168,
      "Ġheadlight": 6169,
      "Ġwashes": 6170,
      "jam": 6171,
      "Ġinfant": 6172,
      "Ġbrake": 6173,
      "speed": 6174,
      "Ġshut": 6175,
      "Ġeurope": 6176,
      "Ġcoconut": 6177,
      "det": 6178,
      "Ġdeviation": 6179,
      "Ġnozzle": 6180,
      "Ġexport": 6181,
      "Ġrepe": 6182,
      "hib": 6183,
      "Ġstyled": 6184,
      "Ġexperi": 6185,
      "Ġdot": 6186,
      "oti": 6187,
      "Ġadop": 6188,
      "Ġmist": 6189,
      "Ġnuts": 6190,
      "Ġamb": 6191,
      "ishes": 6192,
      "heavy": 6193,
      "Ġfolder": 6194,
      "Ġmedic": 6195,
      "Ġdell": 6196,
      "Ġrestaurant": 6197,
      "Ġfatigue": 6198,
      "Ġpip": 6199,
      "thick": 6200,
      "aki": 6201,
      "Ġcomfor": 6202,
      "Ġfootball": 6203,
      "Ġfight": 6204,
      "Ġmentioned": 6205,
      "Ġconsidered": 6206,
      "Ġsteps": 6207,
      "Ġgrowing": 6208,
      "kine": 6209,
      "Ġconvers": 6210,
      "Ġpuja": 6211,
      "Ġrecord": 6212,
      "Ġcapable": 6213,
      "Ġsuffer": 6214,
      "Ġlaunch": 6215,
      "Ġbroad": 6216,
      "ila": 6217,
      "Ġmaruti": 6218,
      "functional": 6219,
      "Ġbrist": 6220,
      "Ġmaintaining": 6221,
      "Ġautumn": 6222,
      "Ġpuzzle": 6223,
      "Ġhalloween": 6224,
      "?</": 6225,
      "ging": 6226,
      "Ġweek": 6227,
      "Ġtouchscreen": 6228,
      "Ġcelebrations": 6229,
      "gt": 6230,
      "Ġkund": 6231,
      "boy": 6232,
      "Ġneckline": 6233,
      "Ġpixel": 6234,
      "silic": 6235,
      "navy": 6236,
      "Ġinvest": 6237,
      "Ġloafers": 6238,
      "ites": 6239,
      "itr": 6240,
      "Ġintellig": 6241,
      "ech": 6242,
      "icorn": 6243,
      "Ġadvent": 6244,
      "layer": 6245,
      "tt": 6246,
      "check": 6247,
      "attractive": 6248,
      "ged": 6249,
      "Ġtrademark": 6250,
      "Ġextended": 6251,
      "Ġbeard": 6252,
      "club": 6253,
      "Ġ43": 6254,
      "Ġstudents": 6255,
      "drop": 6256,
      "Ġmedical": 6257,
      "bull": 6258,
      "life": 6259,
      "Ġsile": 6260,
      "Ġpup": 6261,
      "Ġstripe": 6262,
      "cert": 6263,
      "Ġash": 6264,
      "coal": 6265,
      "Ġrating": 6266,
      "Ġbowls": 6267,
      "Ġtables": 6268,
      "Ġartistic": 6269,
      "touch": 6270,
      "Ġsuzuki": 6271,
      "Ġsoon": 6272,
      "esham": 6273,
      "Ġbuddha": 6274,
      "Ġqual": 6275,
      "Ġboh": 6276,
      "Ġreligious": 6277,
      "Ġcoin": 6278,
      "odorize": 6279,
      "Ġ1080": 6280,
      "cept": 6281,
      "Ġ85": 6282,
      "dark": 6283,
      "rise": 6284,
      "Ġlithium": 6285,
      "Ġjumpsuit": 6286,
      "inest": 6287,
      "****": 6288,
      "icate": 6289,
      "Ġparents": 6290,
      "Ġgerm": 6291,
      "Ġvr": 6292,
      "illing": 6293,
      "Ġhosiery": 6294,
      "Ġterms": 6295,
      "total": 6296,
      "quick": 6297,
      "Ġgir": 6298,
      "Ġfilters": 6299,
      "Ġrolling": 6300,
      "Ġpubg": 6301,
      "Ġcorpor": 6302,
      "Ġtechnique": 6303,
      "atory": 6304,
      "Ġwarmth": 6305,
      "Ġbedsheets": 6306,
      "fix": 6307,
      "Ġconfident": 6308,
      "Ġstream": 6309,
      "Ġplayers": 6310,
      "Ġgeom": 6311,
      "Ġupgrade": 6312,
      "rd": 6313,
      "Ġexec": 6314,
      "Ġdedicated": 6315,
      "erald": 6316,
      "aple": 6317,
      "gets": 6318,
      "Ġsystems": 6319,
      "Ġlicensed": 6320,
      "Ġdelicious": 6321,
      "Ġrid": 6322,
      "Ġdepending": 6323,
      "oplastic": 6324,
      "india": 6325,
      "Ġnursing": 6326,
      "nor": 6327,
      "Ġpour": 6328,
      "Ġscul": 6329,
      "Ġconditioner": 6330,
      "shap": 6331,
      "Ġseams": 6332,
      "rat": 6333,
      "Ġsent": 6334,
      "Ġgauge": 6335,
      "Ġbelie": 6336,
      "lin": 6337,
      "Ġbench": 6338,
      "Ġcommercial": 6339,
      "Ġcomplex": 6340,
      "thus": 6341,
      "Ġunited": 6342,
      "olf": 6343,
      "shape": 6344,
      "Ġatmosph": 6345,
      "Ġregistered": 6346,
      "2019": 6347,
      "Ġbathing": 6348,
      "Ġathletic": 6349,
      "Ġmusical": 6350,
      "Ġsuppli": 6351,
      "Ġlasts": 6352,
      "Ġfield": 6353,
      "Ġappropriate": 6354,
      "lx": 6355,
      "Ġsporty": 6356,
      "Ġ64": 6357,
      "tog": 6358,
      "flexible": 6359,
      "Ġeyelet": 6360,
      "Ġinfin": 6361,
      "Ġplanet": 6362,
      "circ": 6363,
      "Ġhonda": 6364,
      "Ġfeather": 6365,
      "ni": 6366,
      "lorine": 6367,
      "nc": 6368,
      "eds": 6369,
      "Ġseater": 6370,
      "isure": 6371,
      "Ġhoodies": 6372,
      "from": 6373,
      "Ġcleaned": 6374,
      "Ġreverse": 6375,
      "Ġlover": 6376,
      "Ġecon": 6377,
      "fun": 6378,
      "arts": 6379,
      "van": 6380,
      "universal": 6381,
      "Ġpermanently": 6382,
      "Ġbun": 6383,
      "Ġadjusted": 6384,
      "Ġscan": 6385,
      "Ġlocking": 6386,
      "Ġdisposable": 6387,
      "ultane": 6388,
      "Ġdashboard": 6389,
      "sur": 6390,
      "vy": 6391,
      "Ġpins": 6392,
      "pet": 6393,
      "Ġtummy": 6394,
      "Ġequipments": 6395,
      "pair": 6396,
      "field": 6397,
      "Ġfolded": 6398,
      "Ġguards": 6399,
      "ying": 6400,
      "Ġexactly": 6401,
      "Ġjum": 6402,
      "93": 6403,
      "Ġcum": 6404,
      "Ġflawless": 6405,
      "Ġmajor": 6406,
      "ios": 6407,
      "Ġ>": 6408,
      "Ġposs": 6409,
      "Ġ[âľĶ": 6410,
      "Ġshift": 6411,
      "Ġfauc": 6412,
      "Ġdull": 6413,
      "Ġindepend": 6414,
      "Ġincense": 6415,
      ",â": 6416,
      "Ġremind": 6417,
      "250": 6418,
      "Ġimagination": 6419,
      "Ġcategory": 6420,
      "Ġtalk": 6421,
      "arkali": 6422,
      "Ġsupported": 6423,
      "Ġknives": 6424,
      "Ġrainbow": 6425,
      "Ġtitle": 6426,
      "Ġresol": 6427,
      "Ġrudraksha": 6428,
      "ru": 6429,
      "kurta": 6430,
      "Ġtel": 6431,
      "Ġelement": 6432,
      "axes": 6433,
      "oved": 6434,
      "Ġta": 6435,
      "easily": 6436,
      "Ġterr": 6437,
      "Ġfoods": 6438,
      "auto": 6439,
      "Ġsimultane": 6440,
      "Ġfibers": 6441,
      "Ġfake": 6442,
      "genuine": 6443,
      "ï¼Į": 6444,
      "Ġ~": 6445,
      "undred": 6446,
      "Ġratti": 6447,
      "sn": 6448,
      "Ġrealistic": 6449,
      "Ġdelivered": 6450,
      "Ġflavor": 6451,
      "Ġsplit": 6452,
      "Ġgms": 6453,
      "Ġthousands": 6454,
      "fined": 6455,
      "Ġpunch": 6456,
      "Ġsus": 6457,
      "Ġbrushed": 6458,
      "Ġeconom": 6459,
      "Ġbeam": 6460,
      "Ġfurnishing": 6461,
      "Ġmoment": 6462,
      "highly": 6463,
      "organ": 6464,
      "Ġposture": 6465,
      "meade": 6466,
      "wedding": 6467,
      "romax": 6468,
      "Ġmethods": 6469,
      "Ġbringing": 6470,
      "rubber": 6471,
      "Ġtass": 6472,
      "Ġmoon": 6473,
      "Ġdecals": 6474,
      "allergenic": 6475,
      "allen": 6476,
      "ðŁĳ": 6477,
      "Ġclamp": 6478,
      "Ġideas": 6479,
      "Ġpigment": 6480,
      "Ġclimatic": 6481,
      "perform": 6482,
      "mond": 6483,
      "Ġfashionury": 6484,
      "Ġlearn": 6485,
      "Ġbrilliant": 6486,
      "Ġlotion": 6487,
      "Ġnewborn": 6488,
      "estic": 6489,
      "Ġmatches": 6490,
      "imes": 6491,
      "Ġpacks": 6492,
      "Ġvi": 6493,
      "Ġdragon": 6494,
      "Ġends": 6495,
      "orig": 6496,
      "Ġblouses": 6497,
      "Ġorders": 6498,
      "Ġrelated": 6499,
      "Ġsided": 6500,
      "Ġprop": 6501,
      "Ġinsole": 6502,
      "Ġcharged": 6503,
      "db": 6504,
      "Ġfeminine": 6505,
      "Ġoperated": 6506,
      "Ġlocal": 6507,
      "Ġstored": 6508,
      "vo": 6509,
      "ju": 6510,
      "Ġpepper": 6511,
      "ubingo": 6512,
      "Ġsofter": 6513,
      "Ġfung": 6514,
      "Ġacne": 6515,
      "Ġjapanese": 6516,
      "cms": 6517,
      "lette": 6518,
      "ead": 6519,
      "stones": 6520,
      "Ĺı": 6521,
      "Ġfans": 6522,
      "thank": 6523,
      "sub": 6524,
      "Ġinj": 6525,
      "Ġgather": 6526,
      "Ġchak": 6527,
      "purple": 6528,
      "Ġdeveloped": 6529,
      "hu": 6530,
      "tpu": 6531,
      "Ġshall": 6532,
      "Ġwrinkles": 6533,
      "Ġxx": 6534,
      "Ġprojector": 6535,
      "utra": 6536,
      "Ġwealth": 6537,
      "Ġantenna": 6538,
      "blouse": 6539,
      "Ġjacqu": 6540,
      "Ġimpossible": 6541,
      "compact": 6542,
      "Ġintel": 6543,
      "irtight": 6544,
      "Ġlum": 6545,
      "Ġthorough": 6546,
      "Ġcertain": 6547,
      "Ġbeverages": 6548,
      "Ġprocessed": 6549,
      "Ġtherapy": 6550,
      "Ġlistening": 6551,
      "Ġrotate": 6552,
      "ww": 6553,
      "Ġcatching": 6554,
      "Ġweave": 6555,
      "oil": 6556,
      "Ġatmosphere": 6557,
      "Ġbriefs": 6558,
      "Ġorigin": 6559,
      "extre": 6560,
      "Ġconveniently": 6561,
      "Ġselected": 6562,
      "doll": 6563,
      "Ġthermoplastic": 6564,
      "Ġkapa": 6565,
      "otted": 6566,
      "bris": 6567,
      "Ġtemperatures": 6568,
      "ivel": 6569,
      "Ġhex": 6570,
      "daily": 6571,
      "Ġhit": 6572,
      "magnetic": 6573,
      "Ġpairs": 6574,
      "Ġquote": 6575,
      "Ġpenet": 6576,
      "Ġintric": 6577,
      "Ġswimwear": 6578,
      "Ġadapt": 6579,
      "Ġbackside": 6580,
      "Ġ**": 6581,
      "Ġlu": 6582,
      "Ġcompliment": 6583,
      "Ġ2020": 6584,
      "Ġclasp": 6585,
      "Ġlou": 6586,
      "Ġoptim": 6587,
      "ĠðĿĲ": 6588,
      "under": 6589,
      "Ġfurthermore": 6590,
      "cof": 6591,
      "engshou": 6592,
      "Ġbreast": 6593,
      "Ġjhum": 6594,
      "only": 6595,
      ".,âľħ": 6596,
      "Ġassure": 6597,
      "Ġantioxid": 6598,
      "Ġengra": 6599,
      "Ġbreathability": 6600,
      "micro": 6601,
      "Ġkeychain": 6602,
      "ota": 6603,
      "haust": 6604,
      "________": 6605,
      "Ġshaft": 6606,
      "Ġnovel": 6607,
      "Ġelast": 6608,
      "Ġanniversaries": 6609,
      "Ġcalc": 6610,
      "Ġrugs": 6611,
      "\"),": 6612,
      "Ġhousing": 6613,
      "Ġdebris": 6614,
      "Ġ52": 6615,
      "81": 6616,
      "bright": 6617,
      "Ġaer": 6618,
      "ilies": 6619,
      "Ġtrimmer": 6620,
      "dc": 6621,
      "Ġenvel": 6622,
      "Ġlan": 6623,
      "Ġpall": 6624,
      "07": 6625,
      "number": 6626,
      "choose": 6627,
      "Ġfrost": 6628,
      "Ġmerc": 6629,
      "iest": 6630,
      "Ġrhinest": 6631,
      "application": 6632,
      "plated": 6633,
      "charg": 6634,
      "Ġnothing": 6635,
      "Ĥ¬": 6636,
      "including": 6637,
      "Ġdrum": 6638,
      "deg": 6639,
      "Ġhundred": 6640,
      "equ": 6641,
      "Ġcombines": 6642,
      "Ġspend": 6643,
      "Ġcertific": 6644,
      "voltage": 6645,
      "Ġunicorn": 6646,
      "Ġfar": 6647,
      "anyu": 6648,
      "Ġstripes": 6649,
      "Ġraz": 6650,
      "Ġmoisturizing": 6651,
      "Ġ]": 6652,
      "Ġpros": 6653,
      "Ġbearing": 6654,
      "Ġboat": 6655,
      "Ġcolleag": 6656,
      "ees": 6657,
      "Ġquir": 6658,
      "Ġenglish": 6659,
      "si": 6660,
      "||": 6661,
      "Ġsurprise": 6662,
      "immer": 6663,
      "Ġ54": 6664,
      "mini": 6665,
      "Ġrunner": 6666,
      "Ġtoothbrush": 6667,
      "ember": 6668,
      "breath": 6669,
      "profession": 6670,
      "Ġzinc": 6671,
      "oes": 6672,
      "Ġcrush": 6673,
      "Ġspiritual": 6674,
      "erve": 6675,
      "Ġdesire": 6676,
      "Ġgrom": 6677,
      "held": 6678,
      "Ġsealed": 6679,
      "Ġhammer": 6680,
      "Ġrespect": 6681,
      "Ġsheesham": 6682,
      "tex": 6683,
      "idy": 6684,
      "Ġ47": 6685,
      "Ġcyl": 6686,
      "ficial": 6687,
      "Ġhad": 6688,
      "Ġrefreshing": 6689,
      "Ġgain": 6690,
      "Ġmodule": 6691,
      "Ġwild": 6692,
      "Ġcharcoal": 6693,
      "Ġdesp": 6694,
      "Ġanarkali": 6695,
      "Ġrol": 6696,
      "flower": 6697,
      "Ġseats": 6698,
      "fitting": 6699,
      "Ġvisibility": 6700,
      "wind": 6701,
      "Ġâľ": 6702,
      "Ġsnacks": 6703,
      "auth": 6704,
      "well": 6705,
      "Ġdisplayed": 6706,
      "jew": 6707,
      "chip": 6708,
      "aar": 6709,
      "Ġexecut": 6710,
      "Ġexhaust": 6711,
      "Ġsimultaneously": 6712,
      "Ġrelaxing": 6713,
      "Ġchanges": 6714,
      "Ġutil": 6715,
      "eri": 6716,
      "aches": 6717,
      "Ġcrisp": 6718,
      "Ġfol": 6719,
      "Ġpla": 6720,
      "Ġtiny": 6721,
      ".(": 6722,
      "Ġtent": 6723,
      "Ġinnovation": 6724,
      "Ġbicycle": 6725,
      "Ġmart": 6726,
      "Ġmarvelous": 6727,
      "Ġtric": 6728,
      "dh": 6729,
      "Ġtul": 6730,
      "Ġwarming": 6731,
      "temper": 6732,
      "Ġofficial": 6733,
      "Ġ160": 6734,
      "Ġproperty": 6735,
      "Ġemerald": 6736,
      "Ġblow": 6737,
      "Ġpullover": 6738,
      "main": 6739,
      "jamas": 6740,
      "Ġvelcro": 6741,
      "Ġrepel": 6742,
      "Ġhindu": 6743,
      "63": 6744,
      "Ġrim": 6745,
      "Ġlayered": 6746,
      "Ġbracelets": 6747,
      "Ġspan": 6748,
      "quoise": 6749,
      "Ġduties": 6750,
      "single": 6751,
      "Ġcalling": 6752,
      "ifying": 6753,
      "ðĿĺ": 6754,
      "Ġspots": 6755,
      "Ġsouth": 6756,
      "Ġrap": 6757,
      "Ġconsider": 6758,
      "âĤ¬": 6759,
      "active": 6760,
      "thusi": 6761,
      "Ġdom": 6762,
      "Ġelectricity": 6763,
      "Ġenterprise": 6764,
      "classic": 6765,
      "ounds": 6766,
      "cal": 6767,
      "moon": 6768,
      "Ġmultifunction": 6769,
      "gifts": 6770,
      "Ġtactile": 6771,
      "Ġassembled": 6772,
      "matte": 6773,
      "Ġ2016": 6774,
      "iy": 6775,
      "hou": 6776,
      "performance": 6777,
      "gender": 6778,
      "propylene": 6779,
      "Ġenthusi": 6780,
      "ius": 6781,
      "Ġleast": 6782,
      "Ġru": 6783,
      "mint": 6784,
      "atts": 6785,
      "ficult": 6786,
      "Ġ2017": 6787,
      "Ġexpensive": 6788,
      "shaped": 6789,
      "Ġgrease": 6790,
      "du": 6791,
      "enh": 6792,
      "tub": 6793,
      "Ġcausal": 6794,
      "ĠâĢĺ": 6795,
      "Ġwhenever": 6796,
      "Ġunbox": 6797,
      "Ġrolled": 6798,
      "Ġcomforter": 6799,
      "Ġtrain": 6800,
      "Ġhandset": 6801,
      "stor": 6802,
      "tm": 6803,
      "eller": 6804,
      "mir": 6805,
      "Ġsimpl": 6806,
      "Ġmagnets": 6807,
      ">ðŁĶ": 6808,
      "dev": 6809,
      "swe": 6810,
      "amaz": 6811,
      "Ġampl": 6812,
      "Ġperfumes": 6813,
      "Ġknock": 6814,
      "heat": 6815,
      "Ġcelebration": 6816,
      "cs": 6817,
      "Ġpromot": 6818,
      "ficient": 6819,
      "Ġsweatshirts": 6820,
      "icle": 6821,
      "Ġminim": 6822,
      "Ġcamis": 6823,
      "utral": 6824,
      "Ġfashions": 6825,
      "trad": 6826,
      "Ġpresenting": 6827,
      "Ġchinese": 6828,
      "Ġimpression": 6829,
      "Ġchoo": 6830,
      ",ãĢĲ": 6831,
      "Ġwhit": 6832,
      "etc": 6833,
      "Ġkundan": 6834,
      "Ġfinal": 6835,
      "Ġtast": 6836,
      "Ġalternative": 6837,
      "Ġsubtle": 6838,
      "Ġanime": 6839,
      "saf": 6840,
      "Ġdhoti": 6841,
      "ita": 6842,
      "ongevity": 6843,
      "Ġoval": 6844,
      "Ġshare": 6845,
      "Ġbeer": 6846,
      "Ġgreater": 6847,
      "Ġsmoke": 6848,
      "wired": 6849,
      "Ġdiffuser": 6850,
      "Ġcontinuous": 6851,
      "ðŁį": 6852,
      "Ġshoulders": 6853,
      "ls": 6854,
      "Ġpearls": 6855,
      "Ġleisure": 6856,
      "Ġuniform": 6857,
      "Ġgoods": 6858,
      "heel": 6859,
      "Ġwires": 6860,
      "ups": 6861,
      "Ġsac": 6862,
      "Ġfriction": 6863,
      "vision": 6864,
      "inations": 6865,
      "Ġbond": 6866,
      "Ġow": 6867,
      "Ġvisually": 6868,
      "Ġsubject": 6869,
      "Ġgoogle": 6870,
      "Ġdiss": 6871,
      "acterial": 6872,
      "Ġdespite": 6873,
      "Ġunm": 6874,
      "tx": 6875,
      "Ġolive": 6876,
      "Ġdigest": 6877,
      "idar": 6878,
      "Ġmidi": 6879,
      "Ġdifficult": 6880,
      "Ġlongevity": 6881,
      "Ġfrench": 6882,
      "Ġspacious": 6883,
      "\"</": 6884,
      "Ġstanding": 6885,
      "aked": 6886,
      "designs": 6887,
      "circuit": 6888,
      "dig": 6889,
      "hair": 6890,
      "Ġrated": 6891,
      "Ġspin": 6892,
      "Ġplanter": 6893,
      "brow": 6894,
      "boys": 6895,
      "Ġaaa": 6896,
      "Ġstrain": 6897,
      "bum": 6898,
      "Ġupon": 6899,
      "Ġvirt": 6900,
      "Ġdip": 6901,
      "sales": 6902,
      "Ġdocuments": 6903,
      "Ġauthorized": 6904,
      "Ġunderstanding": 6905,
      "Ġjoggers": 6906,
      "vable": 6907,
      "Ġgallery": 6908,
      "Ġpreserv": 6909,
      "Ġeverywhere": 6910,
      "rene": 6911,
      "Ġfoundation": 6912,
      "Ġairtight": 6913,
      "Ġket": 6914,
      "store": 6915,
      "Ġbread": 6916,
      "Ġsuede": 6917,
      "Ġdigitally": 6918,
      "Ġoutlouders": 6919,
      "Ġincredible": 6920,
      "Ġax": 6921,
      "Ġultr": 6922,
      "-----": 6923,
      "Ġhour": 6924,
      "dish": 6925,
      "Ġtrig": 6926,
      "Ġaux": 6927,
      "Ġsing": 6928,
      ">âĿ¤": 6929,
      "ðĿĹ": 6930,
      "framed": 6931,
      "mil": 6932,
      "Ġconfir": 6933,
      "mets": 6934,
      "Ġrout": 6935,
      "ws": 6936,
      "Ġjacquard": 6937,
      "Ġsculp": 6938,
      "Ġwraps": 6939,
      "Ġinstrument": 6940,
      "Ġvib": 6941,
      "hs": 6942,
      "frame": 6943,
      "Ġmassager": 6944,
      "Ġfootbed": 6945,
      "Ġhelping": 6946,
      "Ġbeloved": 6947,
      "Ġromper": 6948,
      "uses": 6949,
      "Ġhydro": 6950,
      "based": 6951,
      "Ġeggs": 6952,
      "cho": 6953,
      "measure": 6954,
      "Ġmega": 6955,
      "effect": 6956,
      "06": 6957,
      "edom": 6958,
      "mtr": 6959,
      "Ġventilation": 6960,
      "specially": 6961,
      "otive": 6962,
      "asters": 6963,
      "Ġexposed": 6964,
      "temperature": 6965,
      "Ġhypo": 6966,
      "ghz": 6967,
      "Ġmaximize": 6968,
      "professional": 6969,
      "Ġcli": 6970,
      "Ġlids": 6971,
      "Ġcapt": 6972,
      "Ġounce": 6973,
      "Ġhung": 6974,
      "wel": 6975,
      "upper": 6976,
      "Ġdeluxe": 6977,
      "Ġcapture": 6978,
      "aksh": 6979,
      "Ġsecret": 6980,
      "selves": 6981,
      "asy": 6982,
      "Ġinvis": 6983,
      "Ġstudded": 6984,
      "Ġshopsmeade": 6985,
      "oker": 6986,
      "Ġprosper": 6987,
      "Ġ58": 6988,
      "Ġpeach": 6989,
      "even": 6990,
      "ondon": 6991,
      "Ġenrich": 6992,
      "Ġhandbags": 6993,
      "rients": 6994,
      "Ġbirds": 6995,
      "exp": 6996,
      "Ġyrs": 6997,
      "dire": 6998,
      "Ġlabor": 6999,
      "oms": 7000,
      "Ġwar": 7001,
      "Ġbb": 7002,
      "Ġevenly": 7003,
      "Ġauthenticity": 7004,
      "Ġwipes": 7005,
      "Ġpun": 7006,
      "Ġwoo": 7007,
      "working": 7008,
      "Ġcleansing": 7009,
      "pieces": 7010,
      "normal": 7011,
      "original": 7012,
      "Ġoutlet": 7013,
      "Ġincreased": 7014,
      "Ġslips": 7015,
      "appy": 7016,
      "ned": 7017,
      "itis": 7018,
      "resp": 7019,
      "lar": 7020,
      "coffee": 7021,
      "jet": 7022,
      "Ġangles": 7023,
      "Ġpolypropylene": 7024,
      "Ġlarg": 7025,
      "Ġoem": 7026,
      "vehic": 7027,
      "Ġprofessionals": 7028,
      "Ġsed": 7029,
      "Ġmoments": 7030,
      "Ġstationery": 7031,
      "och": 7032,
      "Ġcater": 7033,
      "Ġchecks": 7034,
      "fone": 7035,
      "uss": 7036,
      "Ġquirky": 7037,
      "Ġsockets": 7038,
      "Ġbras": 7039,
      ".,âĿ¤": 7040,
      "Ġsupreme": 7041,
      "Ġextens": 7042,
      "Ġhing": 7043,
      "ui": 7044,
      "Ġthoroughly": 7045,
      "Ġchat": 7046,
      "ek": 7047,
      "Ġbree": 7048,
      "Ġcentre": 7049,
      "Ġears": 7050,
      "Ġbund": 7051,
      "Ġrequest": 7052,
      "Ġbeverage": 7053,
      "Ġgeometric": 7054,
      "iques": 7055,
      "iter": 7056,
      "Ġcopy": 7057,
      "Ġhotels": 7058,
      "Ġpregnancy": 7059,
      "Ġcurve": 7060,
      "Ġcorporate": 7061,
      "packing": 7062,
      "erous": 7063,
      "Ġbigger": 7064,
      "Ġeffortlessly": 7065,
      "coloured": 7066,
      "Ġacer": 7067,
      "Ġbrow": 7068,
      "Ġgems": 7069,
      "Ġbikes": 7070,
      "Ġbackcover": 7071,
      "Ġfacil": 7072,
      "73": 7073,
      "zen": 7074,
      "abl": 7075,
      "Ġdigitizer": 7076,
      "Ġmang": 7077,
      "Ġmicromax": 7078,
      "Ġware": 7079,
      "Ġtoner": 7080,
      "Ġmineral": 7081,
      "uffy": 7082,
      "ĹĨ": 7083,
      "cart": 7084,
      "Ġwave": 7085,
      "Ġaud": 7086,
      "Ġhundreds": 7087,
      "Ġexotic": 7088,
      "Ġhob": 7089,
      "aced": 7090,
      "Ġbecom": 7091,
      "Ġdeck": 7092,
      "laptop": 7093,
      "atever": 7094,
      "Ġasso": 7095,
      "Ġpencils": 7096,
      "Ġlamps": 7097,
      "Ġbound": 7098,
      "tend": 7099,
      "Ġreminder": 7100,
      "09": 7101,
      "iba": 7102,
      "Ġcardig": 7103,
      "Ġmala": 7104,
      "Ġtidy": 7105,
      "Ġinvisible": 7106,
      "Ġdustproof": 7107,
      "Ġder": 7108,
      "tb": 7109,
      "kindly": 7110,
      "Ġconsists": 7111,
      "Ġcandles": 7112,
      "Ġfm": 7113,
      "Ġscissors": 7114,
      "tv": 7115,
      "Ġ56": 7116,
      "rance": 7117,
      "Ġimpacts": 7118,
      "Ġlaminated": 7119,
      "seam": 7120,
      "Ġparam": 7121,
      "Ġassurance": 7122,
      "Ġmothers": 7123,
      "Ġinstead": 7124,
      "short": 7125,
      "Ġkits": 7126,
      "Ġhips": 7127,
      "Ġtote": 7128,
      "Ġpurchased": 7129,
      "Ġdang": 7130,
      "Ġcorrosive": 7131,
      "Ġneutral": 7132,
      "erals": 7133,
      "amins": 7134,
      "aled": 7135,
      "Ġfaucet": 7136,
      "Ġcow": 7137,
      "82": 7138,
      "Ġpile": 7139,
      "jo": 7140,
      "royal": 7141,
      "Ġstencil": 7142,
      "Ġracing": 7143,
      "Ġlend": 7144,
      "Ġsignature": 7145,
      "Ġtaxes": 7146,
      "ðŁĴĮ": 7147,
      "Ġcrystals": 7148,
      "Ġbrought": 7149,
      "ipation": 7150,
      "breathable": 7151,
      "Ġflair": 7152,
      "undai": 7153,
      "Ġvase": 7154,
      "storage": 7155,
      "Ġrotation": 7156,
      "Ġfades": 7157,
      "cute": 7158,
      "dut": 7159,
      "Ġirritation": 7160,
      "Ġreliability": 7161,
      "ivo": 7162,
      "Ġcustomization": 7163,
      "iolet": 7164,
      "iced": 7165,
      "Ġ2000": 7166,
      "Ġensemble": 7167,
      "limited": 7168,
      "Ġmanufacturers": 7169,
      "Ġtele": 7170,
      "manufact": 7171,
      "Ġbridge": 7172,
      "Ġtwin": 7173,
      "esus": 7174,
      "Ġbutterfly": 7175,
      "season": 7176,
      "Ġformat": 7177,
      "Ġkill": 7178,
      "Ġwallets": 7179,
      "Ġtire": 7180,
      "raj": 7181,
      "Ġlose": 7182,
      "Ġkar": 7183,
      "Ġorth": 7184,
      ")(": 7185,
      "49": 7186,
      "Ġthigh": 7187,
      "Ġheav": 7188,
      "Ġfamilies": 7189,
      "Ġweighs": 7190,
      "Ġcolleagues": 7191,
      "son": 7192,
      "Ġdivid": 7193,
      ";,&#": 7194,
      "Ġos": 7195,
      "Ġshadow": 7196,
      "Ġfloors": 7197,
      "Ġexciting": 7198,
      "Ġchecked": 7199,
      "Ġmechanical": 7200,
      "Ġlots": 7201,
      "Ġcompare": 7202,
      "condition": 7203,
      ".),": 7204,
      "Ġpath": 7205,
      "Ġaccommodate": 7206,
      "Ġâľħ": 7207,
      "Ġsust": 7208,
      "Ġaloe": 7209,
      "Ġwatts": 7210,
      "Ġspills": 7211,
      "Ġpapers": 7212,
      "Ġrobust": 7213,
      "Ġweeke": 7214,
      "Ġpatio": 7215,
      "adv": 7216,
      "Ġsilhou": 7217,
      "Ġsaves": 7218,
      "Ġorient": 7219,
      "Ġbless": 7220,
      "Ġtrol": 7221,
      "Ġpractice": 7222,
      "Ġbars": 7223,
      "Ġgroom": 7224,
      "rated": 7225,
      "isable": 7226,
      "Ġsigns": 7227,
      "Ġhes": 7228,
      "pit": 7229,
      "modern": 7230,
      "Ġexecutive": 7231,
      "Ġfitment": 7232,
      "Ġcoats": 7233,
      "amination": 7234,
      "Ġzenfone": 7235,
      "Ġmal": 7236,
      "Ġfort": 7237,
      "Ġaid": 7238,
      "Ġ[ãĢĲ": 7239,
      "Ġvacation": 7240,
      "mix": 7241,
      "bro": 7242,
      "Ġsari": 7243,
      "Ġfantastic": 7244,
      "covery": 7245,
      "Ġstars": 7246,
      "Ġironing": 7247,
      "traditional": 7248,
      "Ġweaving": 7249,
      "ady": 7250,
      "ennis": 7251,
      "Ġobstruct": 7252,
      "Ġenfield": 7253,
      "05": 7254,
      "Ġrectangular": 7255,
      "Ġruby": 7256,
      "Ġsant": 7257,
      "fected": 7258,
      "Ġmanagement": 7259,
      "Ġ108": 7260,
      "Ġsticking": 7261,
      "Ġcav": 7262,
      "Ġprinters": 7263,
      "Ġneatly": 7264,
      "Ġinnerwear": 7265,
      "Ġacts": 7266,
      "using": 7267,
      "Ġsuffering": 7268,
      "Ġtrusted": 7269,
      "Ġembellished": 7270,
      "Ġzap": 7271,
      "gent": 7272,
      "Ġwrapping": 7273,
      "Ġenhancing": 7274,
      "Ġspa": 7275,
      "ails": 7276,
      "Ġsoftware": 7277,
      "Â·": 7278,
      "Ġuninstall": 7279,
      ",<": 7280,
      "Ġbristles": 7281,
      "Ġsocial": 7282,
      "handmade": 7283,
      "Ġrelieve": 7284,
      "Ġtennis": 7285,
      "Ġbreathe": 7286,
      "Ġcellphone": 7287,
      "Ġfreedom": 7288,
      "duty": 7289,
      "Ġreflective": 7290,
      "Ġcig": 7291,
      "ðŁİ": 7292,
      "Ġsparkle": 7293,
      "bel": 7294,
      "exclusive": 7295,
      "Ġdrip": 7296,
      "Ġprosperity": 7297,
      "acer": 7298,
      "Ġtension": 7299,
      "sum": 7300,
      "Ġwhatever": 7301,
      "Ġrelation": 7302,
      "148": 7303,
      "enger": 7304,
      "Ġmasks": 7305,
      "Ġzippered": 7306,
      "Ġbelts": 7307,
      "Ġbron": 7308,
      "sturdy": 7309,
      "trendy": 7310,
      "Ġscent": 7311,
      "Ġkoh": 7312,
      "Ġvs": 7313,
      "Ġuniquely": 7314,
      "Ġshake": 7315,
      "anda": 7316,
      "Ġ800": 7317,
      "four": 7318,
      "foli": 7319,
      "Ġlisting": 7320,
      "Ġpolyster": 7321,
      "mount": 7322,
      "Ġjaipuri": 7323,
      "Ġahead": 7324,
      "Ġincreasing": 7325,
      "lab": 7326,
      "Ġaccents": 7327,
      "Ġurban": 7328,
      "Ġnutrients": 7329,
      "Ġpls": 7330,
      "helps": 7331,
      "Ġstabil": 7332,
      "Ġcompress": 7333,
      "Ġburning": 7334,
      "Ġjesus": 7335,
      "anium": 7336,
      "giving": 7337,
      "big": 7338,
      "warming": 7339,
      "cush": 7340,
      "Ġcookware": 7341,
      "cat": 7342,
      "paint": 7343,
      "Ġaqua": 7344,
      "Ġstrict": 7345,
      "Ġbling": 7346,
      "Ġquot": 7347,
      "Ġregularly": 7348,
      "enced": 7349,
      "Ġfungus": 7350,
      "Ġmixing": 7351,
      "Ġchoosing": 7352,
      "ulator": 7353,
      "sr": 7354,
      "driver": 7355,
      "Ġdelivering": 7356,
      "multiple": 7357,
      "Ġseamlessly": 7358,
      "Ġharry": 7359,
      "Ġpoco": 7360,
      "Ġminute": 7361,
      "Ġbone": 7362,
      "Ġexcessive": 7363,
      "âĶ": 7364,
      "Ġcircum": 7365,
      "Ġbalanced": 7366,
      "Ġelastane": 7367,
      "Ġforms": 7368,
      "camera": 7369,
      "Ġembossed": 7370,
      "Ġ140": 7371,
      "pick": 7372,
      "128": 7373,
      "Ġindividually": 7374,
      "why": 7375,
      "Ġtraction": 7376,
      "Ġshowing": 7377,
      "world": 7378,
      "Ġalmond": 7379,
      "Ġzirconia": 7380,
      "images": 7381,
      "Ġencourage": 7382,
      "Ġspaces": 7383,
      "Ġgemstones": 7384,
      "Ġties": 7385,
      "will": 7386,
      "zo": 7387,
      "oust": 7388,
      "Ġmountains": 7389,
      "bec": 7390,
      "tic": 7391,
      "pods": 7392,
      "Ġlargest": 7393,
      "Ġmemorable": 7394,
      "Ġformulated": 7395,
      "Ġvitamins": 7396,
      "Ġunits": 7397,
      "iala": 7398,
      "Ġspill": 7399,
      "ĠâĿ¤": 7400,
      "Ġcurves": 7401,
      "ura": 7402,
      "Ġhello": 7403,
      "Ġblends": 7404,
      "button": 7405,
      "Ġrobot": 7406,
      "Ġshag": 7407,
      "Ġsignific": 7408,
      "600": 7409,
      "Ġentertainment": 7410,
      "Ġcoasters": 7411,
      "Ġcoming": 7412,
      "Ġupdated": 7413,
      "Ġflare": 7414,
      "arter": 7415,
      "saving": 7416,
      "Ġeliminate": 7417,
      "Ġgolf": 7418,
      "Ġmirrors": 7419,
      "health": 7420,
      "Ġrestaurants": 7421,
      "china": 7422,
      "Ġswivel": 7423,
      "Ġremember": 7424,
      "Ġentry": 7425,
      ".&#": 7426,
      "Ġdisplays": 7427,
      "Ġsparkling": 7428,
      "Ġwinters": 7429,
      "Ġkurtas": 7430,
      "ionee": 7431,
      "wards": 7432,
      "Ġindoors": 7433,
      "Ġpromotes": 7434,
      "âĺħâĺħ": 7435,
      "Ġletters": 7436,
      "Ġda": 7437,
      "washable": 7438,
      "Ġmeaning": 7439,
      "Ġfiles": 7440,
      "acock": 7441,
      "Ġsolutions": 7442,
      "ignal": 7443,
      "Ġmixer": 7444,
      "Ġpriority": 7445,
      "igible": 7446,
      "coming": 7447,
      "Ġhyundai": 7448,
      "fo": 7449,
      "Ġgeneric": 7450,
      "ille": 7451,
      "Ġcarat": 7452,
      "Ġcalf": 7453,
      "Ġeducational": 7454,
      "Ġlifting": 7455,
      "Ġrather": 7456,
      "Ġpine": 7457,
      "Ġsummers": 7458,
      "Ġillustration": 7459,
      "Ġrapid": 7460,
      "ira": 7461,
      "Ġmonitoring": 7462,
      "ethers": 7463,
      "Ġhop": 7464,
      "Ġglove": 7465,
      "Ġyours": 7466,
      "03": 7467,
      "plug": 7468,
      "Ġdyed": 7469,
      "wheel": 7470,
      "à¤¾": 7471,
      "jay": 7472,
      "Ġpurifier": 7473,
      "Ġcertificate": 7474,
      "Ġingredient": 7475,
      "Ġwedges": 7476,
      "acle": 7477,
      "Ġinteresting": 7478,
      "Ġhandheld": 7479,
      "colors": 7480,
      "sor": 7481,
      "Ġworkouts": 7482,
      "ilst": 7483,
      "Ġtiles": 7484,
      "Ġhope": 7485,
      "Ġorg": 7486,
      "ulating": 7487,
      "owned": 7488,
      "Ġtyp": 7489,
      "artment": 7490,
      "Ġprocessing": 7491,
      "Ġsaid": 7492,
      "\";": 7493,
      "Ġlondon": 7494,
      "shrunk": 7495,
      "Ġteles": 7496,
      "Ġfigur": 7497,
      "sided": 7498,
      "Ġbeans": 7499,
      "maroon": 7500,
      "//": 7501,
      "Ġamerica": 7502,
      "Ġrajasthani": 7503,
      "luc": 7504,
      "Ġintense": 7505,
      "ĸ¶": 7506,
      "Ġdents": 7507,
      "sports": 7508,
      "arian": 7509,
      "Ġbelong": 7510,
      "\\\\": 7511,
      "togethers": 7512,
      "Ġwrong": 7513,
      "Ġsustain": 7514,
      "alend": 7515,
      "Ġstem": 7516,
      "Ġstamp": 7517,
      "Ġshank": 7518,
      "Ġfuel": 7519,
      "contact": 7520,
      "impact": 7521,
      "Ġgop": 7522,
      "hood": 7523,
      "Ġpreferred": 7524,
      "Ġgps": 7525,
      "love": 7526,
      "Ġtags": 7527,
      "Ġclosing": 7528,
      "steel": 7529,
      "Ġhorn": 7530,
      "Ġtpr": 7531,
      "Ġcuff": 7532,
      "Ġtechniques": 7533,
      "Ġbreaking": 7534,
      "Ġcubic": 7535,
      "Ġattachment": 7536,
      "sky": 7537,
      "Ġmeal": 7538,
      "attle": 7539,
      "Ġthermometer": 7540,
      "mw": 7541,
      "Ġwhilst": 7542,
      "Ġjam": 7543,
      "Ġfactor": 7544,
      "Ġfreshness": 7545,
      "Ġodorless": 7546,
      "Ġjoker": 7547,
      "Ġcustomised": 7548,
      "Ġcoral": 7549,
      ">âĿ¤ï¸ı": 7550,
      "Ġmail": 7551,
      "yes": 7552,
      "angu": 7553,
      "Ġeight": 7554,
      "birthday": 7555,
      "Ġcad": 7556,
      "assemble": 7557,
      "âĶĪ": 7558,
      "Ġshrinkage": 7559,
      "half": 7560,
      "Ġreturns": 7561,
      "Ġdoctor": 7562,
      "Ġpromises": 7563,
      "ships": 7564,
      "Ġunmatched": 7565,
      "anch": 7566,
      "Ġsilhouette": 7567,
      "kins": 7568,
      "Ġguid": 7569,
      "phant": 7570,
      "Ġvibration": 7571,
      "bt": 7572,
      "ov": 7573,
      "Ġ230": 7574,
      "Ġflops": 7575,
      "Ġpreserve": 7576,
      "eting": 7577,
      "lery": 7578,
      "Ġdest": 7579,
      "Ġconduct": 7580,
      "Ġratio": 7581,
      "ris": 7582,
      "Ġfry": 7583,
      "Ġtextile": 7584,
      "trans": 7585,
      "rust": 7586,
      "bub": 7587,
      "Ġangel": 7588,
      "79": 7589,
      "Ġendless": 7590,
      "Ġconcer": 7591,
      "agen": 7592,
      "Ġpolar": 7593,
      "Ġelite": 7594,
      "ifies": 7595,
      "acafe": 7596,
      "Ġspoons": 7597,
      "ayacafe": 7598,
      "has": 7599,
      "Ġdrawers": 7600,
      "bor": 7601,
      "Ġvariations": 7602,
      "Ġindependent": 7603,
      "Ġflame": 7604,
      "Ġdivine": 7605,
      "eries": 7606,
      "chand": 7607,
      "Ġgoal": 7608,
      "delivery": 7609,
      "Ġoxy": 7610,
      "Ġcafe": 7611,
      "cean": 7612,
      "Ġduvet": 7613,
      "Ġtarn": 7614,
      "comb": 7615,
      "Ġsqueeze": 7616,
      ",âľħ": 7617,
      "Ġharness": 7618,
      "fashionable": 7619,
      "Ġconnecting": 7620,
      "maid": 7621,
      "Ġglobal": 7622,
      "Ġbrighten": 7623,
      "Ġayurvedic": 7624,
      "gsm": 7625,
      "Ġsuggestions": 7626,
      "Ġfut": 7627,
      "bul": 7628,
      "rain": 7629,
      "Ġbadge": 7630,
      "Ġcouch": 7631,
      "Ġwake": 7632,
      "iveness": 7633,
      "âĶĪâĶĪ": 7634,
      "Ġnorth": 7635,
      "08": 7636,
      "Ġdin": 7637,
      "ĠÂ·": 7638,
      "Ġcompromising": 7639,
      "Ġpolishing": 7640,
      "Ġempl": 7641,
      "card": 7642,
      "Ġminerals": 7643,
      "uations": 7644,
      "mhz": 7645,
      "Ġcrazy": 7646,
      "Ġfelt": 7647,
      "ko": 7648,
      "safety": 7649,
      "ulates": 7650,
      "!!!": 7651,
      "Ġaging": 7652,
      "Ġgrinding": 7653,
      "affected": 7654,
      "Ġiv": 7655,
      "Ġconsistent": 7656,
      "bottom": 7657,
      "cushion": 7658,
      "ista": 7659,
      "04": 7660,
      "iano": 7661,
      "ĠĠĠĠĠ": 7662,
      "Ġadvantage": 7663,
      "Ġmanage": 7664,
      "insp": 7665,
      "Ġhost": 7666,
      "Ġtumbl": 7667,
      "Ġunaffected": 7668,
      "Ġtradition": 7669,
      "Ġample": 7670,
      "Ġmeeting": 7671,
      "Ġchill": 7672,
      "imentions": 7673,
      "Ġhypoallergenic": 7674,
      "Ġpublic": 7675,
      "Ġroot": 7676,
      "Ġhumidity": 7677,
      "Ġspat": 7678,
      "################": 7679,
      "Ġputting": 7680,
      "kitchen": 7681,
      "ikes": 7682,
      "Ġrip": 7683,
      "cope": 7684,
      "Ġhandicrafts": 7685,
      "Ġstrips": 7686,
      "Ġskinny": 7687,
      "Ġinfra": 7688,
      "Ġtour": 7689,
      "Ġfigures": 7690,
      "Ġdisk": 7691,
      "Ġsprink": 7692,
      "Ġreasons": 7693,
      "Ġcombinations": 7694,
      "Ġimpec": 7695,
      "Ġreceived": 7696,
      "Ġchik": 7697,
      "Ġtrending": 7698,
      "Ġpolka": 7699,
      "phot": 7700,
      "Ġcontinuously": 7701,
      "Ġdim": 7702,
      "Ġnovelty": 7703,
      "Ġrole": 7704,
      "gress": 7705,
      "sch": 7706,
      "customer": 7707,
      "Ġresulting": 7708,
      "2017": 7709,
      "extremely": 7710,
      "Ġwi": 7711,
      "otch": 7712,
      "Ġweekend": 7713,
      "Ġexfoli": 7714,
      "scratches": 7715,
      "Ġker": 7716,
      "Ġintensive": 7717,
      "beige": 7718,
      "oother": 7719,
      "Ġknitting": 7720,
      "Ġdimentions": 7721,
      "Ġcalend": 7722,
      "Ġcombine": 7723,
      "Ġmatched": 7724,
      "Ġreview": 7725,
      "golden": 7726,
      "fir": 7727,
      "erin": 7728,
      "Ġcarrier": 7729,
      "perfectly": 7730,
      "Ġtin": 7731,
      "Ġlever": 7732,
      "Ġmemories": 7733,
      "amine": 7734,
      "Ġnegl": 7735,
      "flash": 7736,
      "Ġtile": 7737,
      "Ġflavour": 7738,
      "unting": 7739,
      "Ġbeaches": 7740,
      "Ġanc": 7741,
      "Ġscr": 7742,
      "Ġword": 7743,
      "umclub": 7744,
      "luxur": 7745,
      "Ġfount": 7746,
      "adhesive": 7747,
      "Ġwheeler": 7748,
      "emb": 7749,
      "Ġbin": 7750,
      "Ġarrange": 7751,
      "lens": 7752,
      "Ġintricate": 7753,
      ">âĺ": 7754,
      "Ġbaseball": 7755,
      "Ġtubes": 7756,
      "Ġclimbing": 7757,
      "Ġhygiene": 7758,
      ">âľ": 7759,
      "Ġdrilling": 7760,
      "ili": 7761,
      "Ġartworks": 7762,
      "Ġcrown": 7763,
      "Ġsam": 7764,
      "Ġtapest": 7765,
      "jab": 7766,
      "peria": 7767,
      "enol": 7768,
      "without": 7769,
      "Ġspare": 7770,
      "avoid": 7771,
      "Ġquiet": 7772,
      "Ġscra": 7773,
      "eme": 7774,
      "avender": 7775,
      "food": 7776,
      "Ġbasketball": 7777,
      "Ġcracks": 7778,
      "Ġpatiala": 7779,
      "Ġ125": 7780,
      "Ġboards": 7781,
      "Ġnegligible": 7782,
      "Ġ/>&": 7783,
      "quir": 7784,
      "bubble": 7785,
      "Ġkal": 7786,
      "Ġaus": 7787,
      "pop": 7788,
      "Ġrigid": 7789,
      "absorbing": 7790,
      "unity": 7791,
      "Ġempty": 7792,
      "Ġevil": 7793,
      "tight": 7794,
      "Ġlb": 7795,
      "Ġmanner": 7796,
      "Ġtill": 7797,
      "Ġquad": 7798,
      "Ġstretching": 7799,
      "Ġmaintains": 7800,
      "Ġnecess": 7801,
      "removable": 7802,
      "Ġinit": 7803,
      "Ġembellish": 7804,
      "pock": 7805,
      "Ġbabydoll": 7806,
      "Ġcamisole": 7807,
      "Ġvastu": 7808,
      "istics": 7809,
      "Ġreply": 7810,
      "Ġpores": 7811,
      "Ġrolls": 7812,
      "Ġmeets": 7813,
      "Ġliter": 7814,
      "Ġprocessor": 7815,
      "Ġturquoise": 7816,
      "ato": 7817,
      "Ġrevolution": 7818,
      "Ġeuropean": 7819,
      "Ġlaw": 7820,
      "Ġstich": 7821,
      "glare": 7822,
      "Ġshiv": 7823,
      "Ġinfo": 7824,
      "aded": 7825,
      "creat": 7826,
      "Ġbacked": 7827,
      "Ġbenefit": 7828,
      "oring": 7829,
      "Ġdetect": 7830,
      "Ġfert": 7831,
      "shine": 7832,
      "friends": 7833,
      "Ġven": 7834,
      "Ġstandby": 7835,
      "etti": 7836,
      "Ġmountain": 7837,
      "Ġconcept": 7838,
      "Ġchuridar": 7839,
      "%,": 7840,
      "tte": 7841,
      "Ġmadanyu": 7842,
      "Ġ96": 7843,
      "rose": 7844,
      "Ġaccept": 7845,
      "Ġmeasured": 7846,
      "Ġmercury": 7847,
      "Ġheater": 7848,
      "eict": 7849,
      "tan": 7850,
      "Ġhollow": 7851,
      "microwave": 7852,
      "picious": 7853,
      "Ġreadymade": 7854,
      "Ġbis": 7855,
      "Ġstory": 7856,
      "Ġdistinctive": 7857,
      "Ġinfrared": 7858,
      "rays": 7859,
      "Ġrefined": 7860,
      "rio": 7861,
      "Ġpatented": 7862,
      "Ġgodd": 7863,
      "Ġ84": 7864,
      "Ġfloating": 7865,
      "Ġtrolley": 7866,
      "Ġelev": 7867,
      "Ġcigare": 7868,
      "Ġsoul": 7869,
      "\"--": 7870,
      "Ġgionee": 7871,
      "lence": 7872,
      "lie": 7873,
      "charging": 7874,
      "asted": 7875,
      "Ġapparels": 7876,
      "Ġxxx": 7877,
      "Ġpole": 7878,
      "10148": 7879,
      "Ġ57": 7880,
      "Ġabdom": 7881,
      "hensive": 7882,
      "Ġrazor": 7883,
      "Ġcoins": 7884,
      "lined": 7885,
      "Ġgoddess": 7886,
      "Ġadhes": 7887,
      "Ġhousewarming": 7888,
      "vehicle": 7889,
      "Ġflashlight": 7890,
      "Ġhandsfree": 7891,
      "Ġreceiving": 7892,
      "bas": 7893,
      "Ġhurt": 7894,
      "Ġgrinder": 7895,
      "Ġcardigan": 7896,
      "Ġcontrolled": 7897,
      "Ġsmudge": 7898,
      "Ġelbow": 7899,
      "price": 7900,
      "Ġfolds": 7901,
      "Ġmf": 7902,
      "lucent": 7903,
      "Ġforget": 7904,
      "Ġconsumer": 7905,
      "Ġmessages": 7906,
      "Ġjuicer": 7907,
      "travel": 7908,
      "Ġply": 7909,
      "Ġinterlock": 7910,
      "Ġdiamonds": 7911,
      "kal": 7912,
      "Ġgrips": 7913,
      "Ġdvd": 7914,
      "Ġtextures": 7915,
      "Ġbackup": 7916,
      "outdoor": 7917,
      "Ġextracts": 7918,
      "Ġtal": 7919,
      "Ġairpods": 7920,
      "Ġrecovery": 7921,
      "Ġtechnolog": 7922,
      "Ġxperia": 7923,
      "Ġtrap": 7924,
      "Ġpeacock": 7925,
      "multipurpose": 7926,
      "Ġretains": 7927,
      "itten": 7928,
      "Ġstaple": 7929,
      "Ġdesgines": 7930,
      "Ġcutlery": 7931,
      "Ġvera": 7932,
      "pat": 7933,
      "Ġsav": 7934,
      "Ġinspiration": 7935,
      "Ġdiet": 7936,
      "Ġgerms": 7937,
      "Ġgroups": 7938,
      "kari": 7939,
      "Ġwt": 7940,
      "sold": 7941,
      "diameter": 7942,
      "Ġpitch": 7943,
      "Ġsketch": 7944,
      "Ġeat": 7945,
      "need": 7946,
      "nel": 7947,
      "xs": 7948,
      "Ġcomputers": 7949,
      "Ġadher": 7950,
      "heart": 7951,
      "ird": 7952,
      "mid": 7953,
      "Ġscoop": 7954,
      "Ġasian": 7955,
      "Ġcloths": 7956,
      "Ġtang": 7957,
      "shell": 7958,
      "dishwasher": 7959,
      "welcome": 7960,
      "Ġserum": 7961,
      "td": 7962,
      "Ġincredibly": 7963,
      "Ġappliances": 7964,
      "Ġgrid": 7965,
      "cutting": 7966,
      "Ġpleated": 7967,
      "lift": 7968,
      "Ġtrays": 7969,
      "Ġconverter": 7970,
      "Ġtwe": 7971,
      "Ġdorm": 7972,
      "Ġcd": 7973,
      "degree": 7974,
      "Ġdirections": 7975,
      "clable": 7976,
      "\"/": 7977,
      "Ġacids": 7978,
      "Ġindustries": 7979,
      "Ġconnects": 7980,
      "give": 7981,
      "Ġreput": 7982,
      "Ġwoolen": 7983,
      "lot": 7984,
      "Ġdrivers": 7985,
      "hey": 7986,
      "........": 7987,
      "Ġchopping": 7988,
      "Ġquotient": 7989,
      "Ġlava": 7990,
      "Ġmembr": 7991,
      "Ġeyebrow": 7992,
      "Ġsneaker": 7993,
      "Ġthumb": 7994,
      "Ġpanasonic": 7995,
      "fall": 7996,
      "Ġruffle": 7997,
      "Ġisol": 7998,
      "Ġemot": 7999,
      "Ġremark": 8000,
      "Ġmtrs": 8001,
      "Ġwatering": 8002,
      "Ġthong": 8003,
      "220": 8004,
      "Ġelephant": 8005,
      "Ġ98": 8006,
      "Ġcurl": 8007,
      "Ġclearly": 8008,
      "Ġsounds": 8009,
      "Ġblackout": 8010,
      "covers": 8011,
      "ras": 8012,
      "Ġdou": 8013,
      "Ġjob": 8014,
      "Ġstores": 8015,
      "Ġsalon": 8016,
      "Ġweak": 8017,
      "Ġgraduation": 8018,
      "Ġautomotive": 8019,
      "Ġbeds": 8020,
      "Ġorignal": 8021,
      "trib": 8022,
      "Ġddr": 8023,
      "zzles": 8024,
      "Ġcud": 8025,
      "Ġslowly": 8026,
      "ht": 8027,
      "Ġrubberized": 8028,
      "Ġmobil": 8029,
      "Ġpremi": 8030,
      "âĿĢ": 8031,
      "plate": 8032,
      "Ġresponsive": 8033,
      "Ġsmoother": 8034,
      "Ġflared": 8035,
      "Ġrods": 8036,
      "Ġshrug": 8037,
      "Ġturbo": 8038,
      "month": 8039,
      "Ġadvisable": 8040,
      "âĻ¥": 8041,
      "Ġattitude": 8042,
      "Ġiconic": 8043,
      "bath": 8044,
      "Ġoxygen": 8045,
      "actory": 8046,
      "dad": 8047,
      "packaging": 8048,
      "digital": 8049,
      "Ġsophist": 8050,
      "tar": 8051,
      "Ġstarter": 8052,
      "allenge": 8053,
      "Ġhide": 8054,
      "Ġlaid": 8055,
      "Ġwait": 8056,
      "Ġsealing": 8057,
      "Ġtrips": 8058,
      "Ġresponsible": 8059,
      "Ġmeat": 8060,
      "Ġdess": 8061,
      "Ġglamorous": 8062,
      "Ġtuck": 8063,
      "Ġjoints": 8064,
      "Ġchlorine": 8065,
      "Ġcelebrate": 8066,
      "Ġhoneymoon": 8067,
      "Ġscreenguard": 8068,
      "Ġdecorated": 8069,
      "Ġhesitate": 8070,
      "sery": 8071,
      "agon": 8072,
      "Ġshaw": 8073,
      "Ġjun": 8074,
      "Ġjock": 8075,
      "Ġtoddlers": 8076,
      "hp": 8077,
      "pouch": 8078,
      "Ġproven": 8079,
      "Ġsatur": 8080,
      "oids": 8081,
      "Ġtracking": 8082,
      "Ġwords": 8083,
      "sublim": 8084,
      "Ġchakra": 8085,
      "Ġauspicious": 8086,
      "Ġbelly": 8087,
      "Ġrecyclable": 8088,
      "Ġdumb": 8089,
      "Ġpackaged": 8090,
      "fire": 8091,
      "Ġdissipation": 8092,
      "Ġpam": 8093,
      "Ġgogg": 8094,
      "Ġfacility": 8095,
      "Ġinduction": 8096,
      "tern": 8097,
      "Ġdre": 8098,
      "Ġdeodor": 8099,
      "Ġjegg": 8100,
      "Ġconvert": 8101,
      "oprene": 8102,
      "Ġotherwise": 8103,
      "ĠâĻ¥": 8104,
      "Ġsophistication": 8105,
      "Ġplugs": 8106,
      "Ġincor": 8107,
      "ackets": 8108,
      "Ġworship": 8109,
      "Ġrelaxation": 8110,
      "Ġmainly": 8111,
      "Ġhorse": 8112,
      "raised": 8113,
      "silicone": 8114,
      "Ġheld": 8115,
      "Ġletting": 8116,
      "Ġ78": 8117,
      "Ġdyes": 8118,
      "Ġ[âĺħ": 8119,
      "Ġcharts": 8120,
      "guards": 8121,
      "Ġthermo": 8122,
      "Ġseating": 8123,
      "Ġ-</": 8124,
      "Ġronal": 8125,
      "Ġconfirm": 8126,
      "Ġwrench": 8127,
      "Ġstatic": 8128,
      "Ġbey": 8129,
      "Ġflying": 8130,
      "Ġcapac": 8131,
      "Ġinterfer": 8132,
      "Ġteens": 8133,
      "âĻ": 8134,
      "Ġlightning": 8135,
      "Ġbudget": 8136,
      "ison": 8137,
      "108": 8138,
      "Ġcircle": 8139,
      "Ġlocation": 8140,
      "Ġengineering": 8141,
      "gentle": 8142,
      "sublimation": 8143,
      "Ġtouching": 8144,
      "Ġronaldo": 8145,
      "Ġkhadi": 8146,
      "Ġstatus": 8147,
      "Ġgermination": 8148,
      "control": 8149,
      "Ġss": 8150,
      "Ġbinding": 8151,
      "Ġtrigger": 8152,
      "Ġgrommets": 8153,
      "Ġsect": 8154,
      "isters": 8155,
      "sand": 8156,
      "Ġrectangle": 8157,
      "Ġassoci": 8158,
      "Ġpolicy": 8159,
      "Ġintensity": 8160,
      "Ġnexus": 8161,
      "Ġpumps": 8162,
      "Ġ{": 8163,
      "Ġmobiles": 8164,
      "Ġvga": 8165,
      "robial": 8166,
      "resistance": 8167,
      "ham": 8168,
      "toe": 8169,
      "arin": 8170,
      "Ġhur": 8171,
      "womens": 8172,
      "ruff": 8173,
      "stery": 8174,
      "Ġeducation": 8175,
      "Ġitalian": 8176,
      "ander": 8177,
      "Ġrobe": 8178,
      "Ġancient": 8179,
      "Ġactivated": 8180,
      "output": 8181,
      "Ġexcel": 8182,
      "syn": 8183,
      "Ġadsor": 8184,
      "Ġipod": 8185,
      "270": 8186,
      "Ġbuff": 8187,
      "uffl": 8188,
      "Ġiso": 8189,
      "Ġtextiles": 8190,
      "ament": 8191,
      "Ġsoles": 8192,
      "Ġscrapbook": 8193,
      "sizes": 8194,
      "Ġmango": 8195,
      "Ġscrewdriver": 8196,
      "Ġcommunication": 8197,
      "Ġregarding": 8198,
      "stop": 8199,
      "Ġflour": 8200,
      "diy": 8201,
      "Ġphon": 8202,
      "âĢĿ,": 8203,
      "Ġexposure": 8204,
      "Ġclearance": 8205,
      "Ġburner": 8206,
      "Ġweighted": 8207,
      "Ġimpeccable": 8208,
      "Ġpest": 8209,
      "nty": 8210,
      "Ġcham": 8211,
      "Ġfinishes": 8212,
      "Ġsignificant": 8213,
      "Ġ@": 8214,
      "assem": 8215,
      "Ġcoco": 8216,
      "Ġnic": 8217,
      "Ġwhitening": 8218,
      ")________": 8219,
      ">ðŁĮ": 8220,
      "Ġhelpful": 8221,
      "orders": 8222,
      "cled": 8223,
      "Ġwin": 8224,
      "Ġbleeding": 8225,
      "atu": 8226,
      "Ġbloom": 8227,
      "Ġseg": 8228,
      "repl": 8229,
      "pot": 8230,
      "Ġkl": 8231,
      "makes": 8232,
      "Ġcarried": 8233,
      "Ġlabels": 8234,
      "izers": 8235,
      "Ġclients": 8236,
      "Ġ130": 8237,
      "Ġprogra": 8238,
      "Ġtrouble": 8239,
      "Ġtrunk": 8240,
      "fresh": 8241,
      "350": 8242,
      "xt": 8243,
      "Ġroots": 8244,
      "Ġpatent": 8245,
      "essions": 8246,
      "Ġlimit": 8247,
      "Ġshiel": 8248,
      "Ġapron": 8249,
      "Ġmoulded": 8250,
      "cos": 8251,
      "ordinary": 8252,
      "Ġcloser": 8253,
      "Ġsequin": 8254,
      "izz": 8255,
      "Ġparab": 8256,
      "Ġji": 8257,
      "Ġscreens": 8258,
      "Ġtired": 8259,
      "Ġbodysuit": 8260,
      "Ġvirat": 8261,
      "kar": 8262,
      "acters": 8263,
      "Ġseven": 8264,
      "Ġroof": 8265,
      "Ġblender": 8266,
      "Ġcargo": 8267,
      "/-": 8268,
      "Ġdolls": 8269,
      "Ġgaur": 8270,
      "Ġcutout": 8271,
      "Ġsaw": 8272,
      "Ġstove": 8273,
      "Ġjet": 8274,
      "Ġspider": 8275,
      "lav": 8276,
      "Ġtheyayacafe": 8277,
      "Ġdazz": 8278,
      "bluetooth": 8279,
      "Ġcoaster": 8280,
      "Ġmeant": 8281,
      "Ġsizing": 8282,
      "Ġdesginer": 8283,
      "Ġblind": 8284,
      "Ġconform": 8285,
      "Ġloving": 8286,
      "sleep": 8287,
      "Ġconnectivity": 8288,
      "Ġnil": 8289,
      "Ġintelligent": 8290,
      "Ġselfie": 8291,
      "\"]": 8292,
      "Ġchamp": 8293,
      "Ġfountain": 8294,
      "build": 8295,
      "Ġfluffy": 8296,
      "Ġcleans": 8297,
      "Ġlisten": 8298,
      "Ġcraftsmen": 8299,
      "Ġneem": 8300,
      "Ġclassroom": 8301,
      "Ġdancing": 8302,
      "Ġshiner": 8303,
      "Ġnill": 8304,
      "Ġnights": 8305,
      "through": 8306,
      "Ġmicron": 8307,
      "Ġachie": 8308,
      "Ġlumin": 8309,
      "amel": 8310,
      "Ġcompromise": 8311,
      "Ġcharacters": 8312,
      "Ġstylus": 8313,
      "Ġxxxl": 8314,
      "Ġpersp": 8315,
      "Ġscratched": 8316,
      "Ġdries": 8317,
      "ĠĠĠĠĠĠĠĠĠ": 8318,
      "Ġzone": 8319,
      "eta": 8320,
      "verage": 8321,
      "acm": 8322,
      "stra": 8323,
      "child": 8324,
      "Ġmembrane": 8325,
      "bi": 8326,
      "ĠâĺĽ": 8327,
      "Ġzippers": 8328,
      "à¥ĩ": 8329,
      "Ġemploy": 8330,
      "Ġafar": 8331,
      "Ġcrew": 8332,
      "Ġcheckered": 8333,
      "Ġoh": 8334,
      "ref": 8335,
      "Ġtraders": 8336,
      "applicable": 8337,
      "Ġdrives": 8338,
      "Ġlavender": 8339,
      "Ġ88": 8340,
      "Ġpressed": 8341,
      "Ġms": 8342,
      "Ġlightly": 8343,
      "Ġcardboard": 8344,
      "Ġreduction": 8345,
      "ÂłÂłÂłÂł": 8346,
      "Ġfas": 8347,
      "Ġpartywear": 8348,
      "Ġkohli": 8349,
      "Ġcigarette": 8350,
      "Ġford": 8351,
      "unisex": 8352,
      "autom": 8353,
      "Ġcapability": 8354,
      "bling": 8355,
      "Ġbronze": 8356,
      "Ġfluid": 8357,
      "Ġyantra": 8358,
      "walk": 8359,
      "Ġstale": 8360,
      "Ġribbons": 8361,
      "Ġergonomically": 8362,
      "traction": 8363,
      "count": 8364,
      "rup": 8365,
      "Ġcasing": 8366,
      "Ġscooter": 8367,
      "kk": 8368,
      "base": 8369,
      "Ġxt": 8370,
      "Ġanch": 8371,
      "Ġsilen": 8372,
      "Ġshot": 8373,
      "Ġexperts": 8374,
      "ugging": 8375,
      "alsutra": 8376,
      "wa": 8377,
      "Ġloung": 8378,
      "Ã£": 8379,
      "Ġvalentines": 8380,
      "lat": 8381,
      "Ġpreservatives": 8382,
      "Ġmc": 8383,
      "Ġipaky": 8384,
      "fest": 8385,
      "Ġfragrances": 8386,
      "ians": 8387,
      "Ġitch": 8388,
      "Ġweighing": 8389,
      "Ġbha": 8390,
      "Ġdamaging": 8391,
      "Ġretina": 8392,
      "Ġleatherette": 8393,
      "Ġexpression": 8394,
      "Ġentirely": 8395,
      "Ġnursery": 8396,
      "Ġparking": 8397,
      "Ġblocking": 8398,
      "tested": 8399,
      "keeps": 8400,
      "Ġ.]": 8401,
      "feel": 8402,
      "Ġreceip": 8403,
      "Ġartic": 8404,
      "Ġbundle": 8405,
      "quet": 8406,
      "iers": 8407,
      "Ġadventure": 8408,
      "Ġornament": 8409,
      "Ġpremier": 8410,
      "Ġtapestry": 8411,
      "alleng": 8412,
      "Ġpom": 8413,
      "Ġ66": 8414,
      "Ġoutings": 8415,
      "Ġaccount": 8416,
      ".-": 8417,
      "lbs": 8418,
      "Ġtrackpants": 8419,
      "Ġunite": 8420,
      "Ġresil": 8421,
      "Ġyubingo": 8422,
      "Ġwhats": 8423,
      "Ġstrings": 8424,
      "window": 8425,
      "bric": 8426,
      "crib": 8427,
      "Ġsmok": 8428,
      "Ġinserts": 8429,
      "Ġfork": 8430,
      "chet": 8431,
      "Ġsurge": 8432,
      "Ġchick": 8433,
      "Ġglobe": 8434,
      "Ġobs": 8435,
      "Ġimproving": 8436,
      "agh": 8437,
      "Ġconfig": 8438,
      "strap": 8439,
      "Ġmes": 8440,
      "Ġtimer": 8441,
      "Ġjournal": 8442,
      "160": 8443,
      "vide": 8444,
      "Ġtangle": 8445,
      "Ġearly": 8446,
      "Ġdiscomfort": 8447,
      "ðŁĴķ": 8448,
      "Ġoily": 8449,
      "Ġcakes": 8450,
      "Ġpaints": 8451,
      "ledge": 8452,
      "Ġcaf": 8453,
      "Ġ68": 8454,
      "Ġnormally": 8455,
      "Ġspecialised": 8456,
      "formal": 8457,
      "Ġscanner": 8458,
      "Ġfore": 8459,
      "enjoy": 8460,
      "uda": 8461,
      "shiba": 8462,
      "Ġbecomes": 8463,
      "ventional": 8464,
      "Ġkash": 8465,
      "ilities": 8466,
      "2016": 8467,
      "Ġextensions": 8468,
      "rc": 8469,
      "tips": 8470,
      "shatter": 8471,
      "iki": 8472,
      "Ġportra": 8473,
      "kick": 8474,
      "cin": 8475,
      "Ġpalette": 8476,
      "Ġcoil": 8477,
      "Ġeliminates": 8478,
      "Ġsul": 8479,
      "Ġpaying": 8480,
      "vert": 8481,
      "Ġ450": 8482,
      "Ġmoreover": 8483,
      "Ġblankets": 8484,
      "push": 8485,
      "Ġcorr": 8486,
      "Ġhalter": 8487,
      "pill": 8488,
      "Ġcomplements": 8489,
      "term": 8490,
      "Ġyard": 8491,
      "find": 8492,
      "help": 8493,
      "Ġfrosted": 8494,
      "deep": 8495,
      "Ġlawn": 8496,
      "Ġneoprene": 8497,
      "Ġplenty": 8498,
      "Ġrepellent": 8499,
      "Ġflatter": 8500,
      "260": 8501,
      "Ġstrive": 8502,
      "belt": 8503,
      "Ġhealthier": 8504,
      "gad": 8505,
      "Ġsequins": 8506,
      "Ġshimmer": 8507,
      "atility": 8508,
      "Ġrhinestone": 8509,
      "Ġstretched": 8510,
      "Ġdeals": 8511,
      "Ġteal": 8512,
      "Ġbolt": 8513,
      "Ġattar": 8514,
      "Ġmeditation": 8515,
      "synthetic": 8516,
      "Ġironman": 8517,
      "Ġefficiently": 8518,
      "Ġreve": 8519,
      "Ġdusty": 8520,
      "Ġgowns": 8521,
      "Ġxr": 8522,
      "Ġreader": 8523,
      "Ġtranslucent": 8524,
      "Ġether": 8525,
      "shield": 8526,
      "grip": 8527,
      "donumclub": 8528,
      "700": 8529,
      "Ġassociated": 8530,
      "Ġcabinets": 8531,
      "Ġtwice": 8532,
      "Ġpenetration": 8533,
      "Ġcylinder": 8534,
      "Ġhaz": 8535,
      "asa": 8536,
      "Ġacoust": 8537,
      "eat": 8538,
      "gives": 8539,
      "uries": 8540,
      "amaha": 8541,
      "tu": 8542,
      "thread": 8543,
      "etimes": 8544,
      "Ġwithstanding": 8545,
      "Ġalbum": 8546,
      "minton": 8547,
      "eases": 8548,
      "Ġserves": 8549,
      "Ġmultifunctional": 8550,
      "Ġcats": 8551,
      "dup": 8552,
      "ceramic": 8553,
      "cade": 8554,
      "Ġleds": 8555,
      "ogue": 8556,
      "notes": 8557,
      "Ġplacem": 8558,
      "Ġminiature": 8559,
      "maximum": 8560,
      "Ġfond": 8561,
      "Ġplum": 8562,
      "Ġmuk": 8563,
      "Ġexhib": 8564,
      "Ġthoughts": 8565,
      "click": 8566,
      "Ġcomposite": 8567,
      "summer": 8568,
      "Ġfda": 8569,
      "Ġboxer": 8570,
      "Ġcru": 8571,
      "Ġmasala": 8572,
      "Ġ.</": 8573,
      "Ġbare": 8574,
      "Ġexperienced": 8575,
      "------": 8576,
      "igation": 8577,
      "Ġfastening": 8578,
      "contains": 8579,
      "pi": 8580,
      "garment": 8581,
      "cast": 8582,
      "Ġhz": 8583,
      "Ġ304": 8584,
      "environment": 8585,
      "ori": 8586,
      "Ġcouples": 8587,
      "Ġenvelop": 8588,
      "Ġdetection": 8589,
      "gloss": 8590,
      "roll": 8591,
      "Ġentering": 8592,
      "Ġrustic": 8593,
      "140": 8594,
      "Ġbarrel": 8595,
      "secure": 8596,
      "juven": 8597,
      "Ġfactors": 8598,
      "prom": 8599,
      "wooden": 8600,
      "Ġtracker": 8601,
      "Ġtemperd": 8602,
      "Ġbirth": 8603,
      "Ġtf": 8604,
      "Ġbeg": 8605,
      "assions": 8606,
      "sleeves": 8607,
      "Ġmakeover": 8608,
      "Ġrail": 8609,
      "Ġsher": 8610,
      "Ġdiya": 8611,
      "Ġcoordination": 8612,
      "vin": 8613,
      "market": 8614,
      "cake": 8615,
      "ami": 8616,
      "imo": 8617,
      "impro": 8618,
      "satisf": 8619,
      "Ġquery": 8620,
      "Ġorginal": 8621,
      "earch": 8622,
      "Ġgrown": 8623,
      "Ġstitches": 8624,
      "Ġinvestment": 8625,
      "scotch": 8626,
      "Ġsafeguard": 8627,
      "Ġmb": 8628,
      "Ġvirtually": 8629,
      "Ġcupboard": 8630,
      "aling": 8631,
      "actual": 8632,
      "Ġfertil": 8633,
      "Ġholidays": 8634,
      "Ġpurity": 8635,
      "pal": 8636,
      "âĦĥ": 8637,
      "Ġinfect": 8638,
      "Ġsafeguards": 8639,
      "Ġchun": 8640,
      "Ġresearch": 8641,
      "à¤°": 8642,
      "Ġrecycled": 8643,
      "fab": 8644,
      "visa": 8645,
      "electro": 8646,
      "pear": 8647,
      "Ġthoughtful": 8648,
      "ĸº": 8649,
      "Ġspig": 8650,
      "Ġsmallest": 8651,
      "Ġdiscre": 8652,
      "Ġtampered": 8653,
      "Ġportability": 8654,
      "Ġchopper": 8655,
      "Ġbreeze": 8656,
      "tough": 8657,
      "Ġnotebooks": 8658,
      "fil": 8659,
      "Ġpans": 8660,
      "Ġ76": 8661,
      "open": 8662,
      "Ġtitanium": 8663,
      "Ġpav": 8664,
      "Ġhangers": 8665,
      "paste": 8666,
      "Ġ210": 8667,
      "pee": 8668,
      "Ġcontinue": 8669,
      "Ġshaping": 8670,
      "Ġpleasure": 8671,
      "+,": 8672,
      "Ġintact": 8673,
      "cup": 8674,
      "Ġltr": 8675,
      "Ġcollaps": 8676,
      "Ġmangalsutra": 8677,
      "che": 8678,
      "Ġholi": 8679,
      "Ġproudly": 8680,
      "Ġloops": 8681,
      "Ġdistributed": 8682,
      ".,&#": 8683,
      "requ": 8684,
      "Ġcleanser": 8685,
      "Ġceremon": 8686,
      "Ġfal": 8687,
      "Ġbeneficial": 8688,
      "Ġ49": 8689,
      "Ġturning": 8690,
      "Ġgirly": 8691,
      "Ġprimary": 8692,
      "Ġscen": 8693,
      "Ġfittings": 8694,
      "Ġinsects": 8695,
      "iven": 8696,
      "Ġcircumference": 8697,
      "Ġextraordinary": 8698,
      "Ġboho": 8699,
      "Ġinbuilt": 8700,
      "Ġglamour": 8701,
      "Ġsupplement": 8702,
      "2015": 8703,
      "Ġstriking": 8704,
      "rock": 8705,
      "Ġnone": 8706,
      "igo": 8707,
      "Ġvijay": 8708,
      "Ġtones": 8709,
      "pant": 8710,
      "Ġlil": 8711,
      "delicate": 8712,
      "shelf": 8713,
      "Ġorganization": 8714,
      "Ġchinos": 8715,
      "Ġlos": 8716,
      "desk": 8717,
      "tree": 8718,
      "Ġamplifier": 8719,
      "Ġexpels": 8720,
      "Ġparameters": 8721,
      "bike": 8722,
      "bet": 8723,
      ",</": 8724,
      "ema": 8725,
      "Ġmolds": 8726,
      "Ġskull": 8727,
      "Ġinterfere": 8728,
      "Ġign": 8729,
      "years": 8730,
      ",&#": 8731,
      "Ġstole": 8732,
      "block": 8733,
      "trade": 8734,
      "Ġmuse": 8735,
      "Ġqrio": 8736,
      "oure": 8737,
      "Ġmotif": 8738,
      "osion": 8739,
      "Ġrepeated": 8740,
      "Ġjan": 8741,
      "aution": 8742,
      "Ġpallu": 8743,
      "Ġeconomical": 8744,
      "iq": 8745,
      "Ġdiseases": 8746,
      "ulent": 8747,
      "Ġnourish": 8748,
      "Ġtrib": 8749,
      "Ġmedicine": 8750,
      "Ġmetals": 8751,
      "Ġdumbbell": 8752,
      "Ġgly": 8753,
      "rum": 8754,
      "Ġappreci": 8755,
      "Ġslicer": 8756,
      "posed": 8757,
      "display": 8758,
      "Ġtend": 8759,
      "mac": 8760,
      "colored": 8761,
      "104": 8762,
      "Ġmaxim": 8763,
      "Ġthanksgiving": 8764,
      "Ġmarker": 8765,
      "Ġlost": 8766,
      "125": 8767,
      "lt": 8768,
      "tha": 8769,
      "Ġresolutions": 8770,
      "Ġfuture": 8771,
      "Ġthereby": 8772,
      "hom": 8773,
      "Ġlaces": 8774,
      "Ġethernet": 8775,
      "Ġloud": 8776,
      "uri": 8777,
      "Ġbadminton": 8778,
      "arns": 8779,
      "Ġscient": 8780,
      "Ġ69": 8781,
      "wrap": 8782,
      "Ġcitr": 8783,
      "scious": 8784,
      "degrad": 8785,
      "Ġgreeting": 8786,
      "Ġturns": 8787,
      "Ġcontrasting": 8788,
      "Ġinsect": 8789,
      "Ġtell": 8790,
      "Ġflashing": 8791,
      "Ġgadgets": 8792,
      "Ġhan": 8793,
      "Ġdreams": 8794,
      ".,*": 8795,
      "130": 8796,
      "Ġexercises": 8797,
      "Ġstrainer": 8798,
      "Ġcollector": 8799,
      "Ġprepare": 8800,
      "plating": 8801,
      "mel": 8802,
      "oleophobic": 8803,
      "eners": 8804,
      "Ġcompli": 8805,
      "102": 8806,
      "''<": 8807,
      "scre": 8808,
      "Ġren": 8809,
      "hydr": 8810,
      "Ġbelongings": 8811,
      "terbox": 8812,
      "Ġroutine": 8813,
      "Ġmint": 8814,
      "Ġcarb": 8815,
      "tes": 8816,
      "copper": 8817,
      "Ġssd": 8818,
      "Ġadsorption": 8819,
      "rate": 8820,
      "Ġcrochet": 8821,
      "Ġfigurine": 8822,
      "Ġplacket": 8823,
      "Ġdung": 8824,
      "Ġdisap": 8825,
      "Ġrajasthan": 8826,
      "Ġwasher": 8827,
      "Ġversatility": 8828,
      "lit": 8829,
      "Ġpray": 8830,
      "Ġimportantly": 8831,
      "effective": 8832,
      "Ġhighlights": 8833,
      "mom": 8834,
      "Ġrejuven": 8835,
      "Ġinvol": 8836,
      "Ġknot": 8837,
      "ðĿĲŀ": 8838,
      "supports": 8839,
      "Ġupdate": 8840,
      "Ġfriendship": 8841,
      "here": 8842,
      "Ġretention": 8843,
      "Ġ[[": 8844,
      "Ġdetergents": 8845,
      "Ġunlimited": 8846,
      "Ġattrib": 8847,
      "Ġenriched": 8848,
      "ado": 8849,
      "Ġhobby": 8850,
      "looking": 8851,
      "Ġ2015": 8852,
      "xi": 8853,
      "vivo": 8854,
      "Ġuphol": 8855,
      "degradable": 8856,
      "Ġwaiting": 8857,
      "Ġnh": 8858,
      "rem": 8859,
      "Ġwhis": 8860,
      "Ġbeyond": 8861,
      "eler": 8862,
      "Ġbandhan": 8863,
      "Ġherb": 8864,
      "Ġtassel": 8865,
      "oufl": 8866,
      "Ġblush": 8867,
      "Ġvine": 8868,
      "happy": 8869,
      "Ġgoggles": 8870,
      "photo": 8871,
      "Ġloves": 8872,
      "Ġknowledge": 8873,
      "Ġtut": 8874,
      "Ġschools": 8875,
      "Ġotterbox": 8876,
      "Ġbrain": 8877,
      "Ġjog": 8878,
      "inum": 8879,
      "Ġtoyota": 8880,
      "Ġbits": 8881,
      "Ġsometimes": 8882,
      "Ġclimate": 8883,
      "latest": 8884,
      "around": 8885,
      "Ġ480": 8886,
      "gem": 8887,
      "Ġjean": 8888,
      "Ġrubberised": 8889,
      "Ġflask": 8890,
      "ugated": 8891,
      "accessories": 8892,
      "kee": 8893,
      "powerful": 8894,
      "Ġstuffed": 8895,
      "dep": 8896,
      "Ġplanters": 8897,
      "Ġgaurd": 8898,
      "Ġleash": 8899,
      "Ġattraction": 8900,
      "Ġcass": 8901,
      "Ġnine": 8902,
      "Ġformulation": 8903,
      "Ġeyelets": 8904,
      "Ġessence": 8905,
      "aghetti": 8906,
      "tration": 8907,
      "Ġwedge": 8908,
      "Ġmetic": 8909,
      "Ġrul": 8910,
      "Ġcracked": 8911,
      "Ġmall": 8912,
      "Ġglowing": 8913,
      "Ġrepresents": 8914,
      "atively": 8915,
      "Ġopened": 8916,
      "Ġspiral": 8917,
      "versatile": 8918,
      "Ġtights": 8919,
      "Ġlaboratory": 8920,
      "valent": 8921,
      "tches": 8922,
      "Ġsata": 8923,
      "Ġbeginners": 8924,
      "Ġribbed": 8925,
      "laces": 8926,
      "Ġbbq": 8927,
      "Ġtechnologies": 8928,
      "Ġslides": 8929,
      "Ġchanderi": 8930,
      "Ġcorresp": 8931,
      "embroid": 8932,
      "aze": 8933,
      "Ġbhag": 8934,
      "800": 8935,
      "static": 8936,
      ",*": 8937,
      "Ġextensive": 8938,
      "Ġlegal": 8939,
      "Ġcpu": 8940,
      "sleek": 8941,
      "Ġpassport": 8942,
      "cing": 8943,
      "elsius": 8944,
      "Ġrelatives": 8945,
      "Ġpajamas": 8946,
      "allergic": 8947,
      "je": 8948,
      "Ġcraw": 8949,
      "core": 8950,
      "Ġchains": 8951,
      "ele": 8952,
      "Ġwiring": 8953,
      "mad": 8954,
      "Ġthicker": 8955,
      "Ġbill": 8956,
      "Ġkettle": 8957,
      "Ġ/></": 8958,
      "bay": 8959,
      "printvisa": 8960,
      "Ġaids": 8961,
      "hole": 8962,
      "veron": 8963,
      "aly": 8964,
      "Ġovers": 8965,
      "Ġstro": 8966,
      "Ġcoordin": 8967,
      "Ġpairing": 8968,
      "Ġscretches": 8969,
      "Ġbrackets": 8970,
      "gard": 8971,
      "Ġchef": 8972,
      "Ġuag": 8973,
      "Ġaverage": 8974,
      "canvas": 8975,
      "Ġbarr": 8976,
      "Ġengraved": 8977,
      "Ġdand": 8978,
      "addle": 8979,
      "Ġcourse": 8980,
      "Ġcalm": 8981,
      "Ġbeaded": 8982,
      "Ġcompre": 8983,
      "Ġoxford": 8984,
      "Ġtong": 8985,
      "Ġgarage": 8986,
      "Ġcere": 8987,
      "shoe": 8988,
      ",[": 8989,
      "Ġcalories": 8990,
      "Ġmoblie": 8991,
      "Ġwarning": 8992,
      "Ġhats": 8993,
      "guarant": 8994,
      "Ġvict": 8995,
      "otec": 8996,
      "ease": 8997,
      "Ġprise": 8998,
      "Ġsaver": 8999,
      "Ġranging": 9000,
      "Ġinflatable": 9001,
      "Ġmobail": 9002,
      "Ġjocker": 9003,
      "bene": 9004,
      "Ġlion": 9005,
      "Ġtorch": 9006,
      "%.": 9007,
      "Ġvisor": 9008,
      "input": 9009,
      "assorted": 9010,
      "anguage": 9011,
      "kets": 9012,
      "Ġshowcase": 9013,
      "Ġmessenger": 9014,
      "Ġshaving": 9015,
      "Ġprevention": 9016,
      "Ġcuffs": 9017,
      "Ġflop": 9018,
      "Ġbumpers": 9019,
      "customized": 9020,
      "Ġoleo": 9021,
      "Ġbeat": 9022,
      "Ġkittys": 9023,
      "Ġstiff": 9024,
      "Ġnoised": 9025,
      "ouflage": 9026,
      "Ġexpose": 9027,
      "Ġpacky": 9028,
      "apor": 9029,
      "three": 9030,
      "Ġminione": 9031,
      "Ġgorila": 9032,
      "Ġringken": 9033,
      "Ġarmoure": 9034,
      "caserin": 9035,
      "Ġdefendering": 9036,
      "Ġavengerso": 9037,
      "Ġkapaveron": 9038,
      "Ġzapcaserin": 9039,
      "Ġnilkine": 9040,
      "Ġnillkine": 9041,
      "Ġipakyed": 9042,
      "Ġspigenol": 9043,
      "Ġqriohey": 9044,
      "Ġotterboxed": 9045,
      "Ġaccentu": 9046,
      "Ġbay": 9047,
      "name": 9048,
      "Ġcircular": 9049,
      "Ġspatula": 9050,
      "Ġsolids": 9051,
      "Ġpacket": 9052,
      "Ġvegan": 9053,
      "Ġpil": 9054,
      "inspired": 9055,
      "nders": 9056,
      "Ġinstalling": 9057,
      "Ġgig": 9058,
      "Ġcentim": 9059,
      "Ġpedal": 9060,
      "Ġfetch": 9061,
      "Ġavoids": 9062,
      "Ġhdd": 9063,
      "Ġhairs": 9064,
      "Ġyarns": 9065,
      "Ġlater": 9066,
      "Ġstudent": 9067,
      "Ġbreathing": 9068,
      "Ġclog": 9069,
      "flip": 9070,
      "rit": 9071,
      "Ġpap": 9072,
      "Ġcubes": 9073,
      "Ġcalendar": 9074,
      "Ġva": 9075,
      "ĠÃĹ": 9076,
      "Ġfeelings": 9077,
      "Ġdepends": 9078,
      "Ġconstantly": 9079,
      "Ġshawl": 9080,
      "couple": 9081,
      "Ġsatisfy": 9082,
      "take": 9083,
      "Ġrevolutionary": 9084,
      "Ġtens": 9085,
      "Ġchoices": 9086,
      "210": 9087,
      "Ġmerchand": 9088,
      "Ġloungewear": 9089,
      "Ġnicely": 9090,
      "watt": 9091,
      "Ġsurg": 9092,
      "Ġgur": 9093,
      "icking": 9094,
      "Ġgaps": 9095,
      "ben": 9096,
      "Ġskate": 9097,
      "vt": 9098,
      "ders": 9099,
      "ĠâĢ¢": 9100,
      "Ġboring": 9101,
      "Ġnavrat": 9102,
      "Ġracer": 9103,
      "Ġtransmitter": 9104,
      "ÂłĠĠ": 9105,
      "Ġneon": 9106,
      "mother": 9107,
      "Ġmidsole": 9108,
      "uber": 9109,
      "Ġgy": 9110,
      "Ġdomestic": 9111,
      "phobic": 9112,
      "cryst": 9113,
      "Ġcooker": 9114,
      "Ġmarkers": 9115,
      "ipes": 9116,
      "bio": 9117,
      "Ġbackcase": 9118,
      "Ġdisney": 9119,
      "Ġmustard": 9120,
      "Ġcelsius": 9121,
      "Ġslit": 9122,
      "Ġbooties": 9123,
      "Ġthird": 9124,
      "Ġtrade": 9125,
      "neath": 9126,
      "imic": 9127,
      "Ġwring": 9128,
      "Ġnutrition": 9129,
      "Ġprops": 9130,
      "ii": 9131,
      "opt": 9132,
      "otta": 9133,
      "Ġmasterpiece": 9134,
      "Ġdil": 9135,
      "christmas": 9136,
      "Ġtargeted": 9137,
      "itable": 9138,
      "Ġak": 9139,
      "aler": 9140,
      "Ġplane": 9141,
      "Ġ1500": 9142,
      "mus": 9143,
      "Ġ51": 9144,
      "cn": 9145,
      "nu": 9146,
      "Ġloom": 9147,
      "Ġunderneath": 9148,
      "Ġcostumes": 9149,
      "Ġcausing": 9150,
      "-------": 9151,
      "ogan": 9152,
      "Ġbee": 9153,
      ",]": 9154,
      "Ġinject": 9155,
      "Ġlacqu": 9156,
      "Ġqueries": 9157,
      "Ġcommonly": 9158,
      "sale": 9159,
      "Ġbeng": 9160,
      "try": 9161,
      "splay": 9162,
      "Ġ900": 9163,
      "osa": 9164,
      "assembly": 9165,
      "Ġtox": 9166,
      "ummy": 9167,
      "Ġbusy": 9168,
      "uces": 9169,
      "handle": 9170,
      "Ġtumbler": 9171,
      "Ġphil": 9172,
      "Ġdusts": 9173,
      "notice": 9174,
      "Ġwings": 9175,
      "ski": 9176,
      "Ġblackberry": 9177,
      "Ġbraided": 9178,
      "Ġdots": 9179,
      "Ġten": 9180,
      "allows": 9181,
      "Ġcomponent": 9182,
      "quiry": 9183,
      "Ġcz": 9184,
      "occ": 9185,
      "Ġdenims": 9186,
      "uma": 9187,
      "Ġaware": 9188,
      "Ġcosplay": 9189,
      "Ġboss": 9190,
      "Ġsweaters": 9191,
      "ðŁĴĮðŁĴĮ": 9192,
      "ŃĲ": 9193,
      "gown": 9194,
      "Ġreflection": 9195,
      "Ġpatches": 9196,
      "Ġportrait": 9197,
      "Ġadvance": 9198,
      "Ġalone": 9199,
      "Ġconsole": 9200,
      "osaur": 9201,
      "Ġopener": 9202,
      "Ġquilted": 9203,
      "meas": 9204,
      "Ġsourced": 9205,
      "Ġseem": 9206,
      "Ġchocolates": 9207,
      "iac": 9208,
      "Ġattaches": 9209,
      "acks": 9210,
      "Ġcopyright": 9211,
      "Ġeaster": 9212,
      "Ġhaw": 9213,
      "isha": 9214,
      "asks": 9215,
      "Ġhardened": 9216,
      "Ġbellies": 9217,
      "Ġminimize": 9218,
      "aram": 9219,
      "Ġtender": 9220,
      "simply": 9221,
      "shy": 9222,
      "Ġnapkins": 9223,
      "Ġsegment": 9224,
      "level": 9225,
      "ulously": 9226,
      "âĢĿ-": 9227,
      "feet": 9228,
      "Ġmandarin": 9229,
      "Ġtopper": 9230,
      "Ġ190": 9231,
      "Ġperip": 9232,
      "Ġvegetarian": 9233,
      "Ġskip": 9234,
      "Ġtower": 9235,
      ">--": 9236,
      "105": 9237,
      "2000": 9238,
      "Ġga": 9239,
      "Ġcommit": 9240,
      "Ġdiscover": 9241,
      "Ġcombining": 9242,
      "Ġavi": 9243,
      "Ġsprays": 9244,
      "Ġreceipts": 9245,
      "pouches": 9246,
      "Ġornaments": 9247,
      "Ġconfigur": 9248,
      "Ġhist": 9249,
      "iphone": 9250,
      "Ġutensil": 9251,
      "Ġjourney": 9252,
      "Ġassort": 9253,
      "must": 9254,
      "Ġpassed": 9255,
      "Ġ1200": 9256,
      "motor": 9257,
      "Ġprompt": 9258,
      "fashionury": 9259,
      "dif": 9260,
      "Ġreno": 9261,
      "Ġ330": 9262,
[...]
